{"Ā": 0, "ā": 1, "Ă": 2, "ă": 3, "Ą": 4, "ą": 5, "Ć": 6, "ć": 7, "Ĉ": 8, "ĉ": 9, "Ċ": 10, "ċ": 11, "Č": 12, "č": 13, "Ď": 14, "ď": 15, "Đ": 16, "đ": 17, "Ē": 18, "ē": 19, "Ĕ": 20, "ĕ": 21, "Ė": 22, "ė": 23, "Ę": 24, "ę": 25, "Ě": 26, "ě": 27, "Ĝ": 28, "ĝ": 29, "Ğ": 30, "ğ": 31, "Ġ": 32, "!": 33, "\"": 34, "#": 35, "$": 36, "%": 37, "&": 38, "'": 39, "(": 40, ")": 41, "*": 42, "+": 43, ",": 44, "-": 45, ".": 46, "/": 47, "0": 48, "1": 49, "2": 50, "3": 51, "4": 52, "5": 53, "6": 54, "7": 55, "8": 56, "9": 57, ":": 58, ";": 59, "<": 60, "=": 61, ">": 62, "?": 63, "@": 64, "A": 65, "B": 66, "C": 67, "D": 68, "E": 69, "F": 70, "G": 71, "H": 72, "I": 73, "J": 74, "K": 75, "L": 76, "M": 77, "N": 78, "O": 79, "P": 80, "Q": 81, "R": 82, "S": 83, "T": 84, "U": 85, "V": 86, "W": 87, "X": 88, "Y": 89, "Z": 90, "[": 91, "\\": 92, "]": 93, "^": 94, "_": 95, "`": 96, "a": 97, "b": 98, "c": 99, "d": 100, "e": 101, "f": 102, "g": 103, "h": 104, "i": 105, "j": 106, "k": 107, "l": 108, "m": 109, "n": 110, "o": 111, "p": 112, "q": 113, "r": 114, "s": 115, "t": 116, "u": 117, "v": 118, "w": 119, "x": 120, "y": 121, "z": 122, "{": 123, "|": 124, "}": 125, "~": 126, "ġ": 127, "Ģ": 128, "ģ": 129, "Ĥ": 130, "ĥ": 131, "Ħ": 132, "ħ": 133, "Ĩ": 134, "ĩ": 135, "Ī": 136, "ī": 137, "Ĭ": 138, "ĭ": 139, "Į": 140, "į": 141, "İ": 142, "ı": 143, "Ĳ": 144, "ĳ": 145, "Ĵ": 146, "ĵ": 147, "Ķ": 148, "ķ": 149, "ĸ": 150, "Ĺ": 151, "ĺ": 152, "Ļ": 153, "ļ": 154, "Ľ": 155, "ľ": 156, "Ŀ": 157, "ŀ": 158, "Ł": 159, "ł": 160, "¡": 161, "¢": 162, "£": 163, "¤": 164, "¥": 165, "¦": 166, "§": 167, "¨": 168, "©": 169, "ª": 170, "«": 171, "¬": 172, "Ń": 173, "®": 174, "¯": 175, "°": 176, "±": 177, "²": 178, "³": 179, "´": 180, "µ": 181, "¶": 182, "·": 183, "¸": 184, "¹": 185, "º": 186, "»": 187, "¼": 188, "½": 189, "¾": 190, "¿": 191, "À": 192, "Á": 193, "Â": 194, "Ã": 195, "Ä": 196, "Å": 197, "Æ": 198, "Ç": 199, "È": 200, "É": 201, "Ê": 202, "Ë": 203, "Ì": 204, "Í": 205, "Î": 206, "Ï": 207, "Ð": 208, "Ñ": 209, "Ò": 210, "Ó": 211, "Ô": 212, "Õ": 213, "Ö": 214, "×": 215, "Ø": 216, "Ù": 217, "Ú": 218, "Û": 219, "Ü": 220, "Ý": 221, "Þ": 222, "ß": 223, "à": 224, "á": 225, "â": 226, "ã": 227, "ä": 228, "å": 229, "æ": 230, "ç": 231, "è": 232, "é": 233, "ê": 234, "ë": 235, "ì": 236, "í": 237, "î": 238, "ï": 239, "ð": 240, "ñ": 241, "ò": 242, "ó": 243, "ô": 244, "õ": 245, "ö": 246, "÷": 247, "ø": 248, "ù": 249, "ú": 250, "û": 251, "ü": 252, "ý": 253, "þ": 254, "ÿ": 255, "<|endoftext|>": 256, "Ġt": 257, "he": 258, "Ġa": 259, "Ġs": 260, "Ġw": 261, "Ġthe": 262, "nd": 263, "ed": 264, "Ġb": 265, "Ġto": 266, "Ġand": 267, "Ġh": 268, "Ġf": 269, "ĠT": 270, "in": 271, "Ġwa": 272, "re": 273, "it": 274, "ou": 275, "Ġl": 276, "Ġd": 277, "Ġc": 278, "Ġp": 279, "ay": 280, "Ġm": 281, "er": 282, "Ġwas": 283, "ĠThe": 284, "om": 285, "Ġhe": 286, "is": 287, "Ġn": 288, "im": 289, "ar": 290, "on": 291, "Ġsa": 292, "ll": 293, "id": 294, "Ġha": 295, "Ġg": 296, "at": 297, "ĠS": 298, "ing": 299, "ot": 300, "en": 301, "an": 302, "le": 303, "or": 304, "ir": 305, "am": 306, "et": 307, "ĠH": 308, "Ġit": 309, "Ġth": 310, "ig": 311, "ĠThey": 312, "Ġpl": 313, "Ġin": 314, "il": 315, "ĠHe": 316, "Ġ\"": 317, "ow": 318, "ver": 319, "ri": 320, "Ġu": 321, "ut": 322, "Ġplay": 323, "ith": 324, "Ġsaid": 325, "Ġbe": 326, "Ġday": 327, "Ġwith": 328, "pp": 329, "On": 330, "Ġo": 331, "Ġy": 332, "oo": 333, "ked": 334, "Ġr": 335, "Ġher": 336, "ce": 337, "ld": 338, "Ġhis": 339, "ĠTim": 340, "ĠI": 341, "ĠShe": 342, "Ġst": 343, "ke": 344, "Ġe": 345, "Ġbig": 346, "nt": 347, "ck": 348, "very": 349, "Ġyou": 350, "st": 351, "ve": 352, "end": 353, "un": 354, "Ġhapp": 355, "Ġon": 356, "all": 357, "riend": 358, "Ġfriend": 359, "Ġthey": 360, "ĠL": 361, "ily": 362, "Ġwe": 363, "Ġhad": 364, "Ġup": 365, "Ġli": 366, "Ġnot": 367, "her": 368, "Ġwant": 369, "itt": 370, "Ġof": 371, "ad": 372, "Ġdo": 373, "ĠB": 374, "se": 375, "Ġhappy": 376, "ent": 377, "Ġvery": 378, "ĠM": 379, "es": 380, "Ġsaw": 381, "One": 382, "Ġthat": 383, "ould": 384, "'s": 385, "Ġfor": 386, "ittle": 387, "Ġmom": 388, "Ġlittle": 389, "Ġso": 390, "Ġsh": 391, "Ġshe": 392, "ime": 393, "ch": 394, "Ġnam": 395, "Ġtime": 396, "Ġk": 397, "Ġne": 398, "ound": 399, ".\"": 400, "Ġthere": 401, "Ġnamed": 402, "Ġbo": 403, "Ġsm": 404, "Ġwere": 405, "Ġwanted": 406, "ĠLily": 407, "Ġfriends": 408, "out": 409, "ird": 410, "Ġbut": 411, "ved": 412, "ht": 413, "!\"": 414, "The": 415, "ĠTom": 416, "Ġbird": 417, "el": 418, "ake": 419, "Ġan": 420, "al": 421, "Ġtoo": 422, "ome": 423, "Ġwent": 424, "Ġwh": 425, "ide": 426, "Once": 427, "Ġall": 428, "ĠIt": 429, "Ġhel": 430, "ug": 431, "ue": 432, "Ġhelp": 433, "Ġis": 434, "Ġloo": 435, "ĠA": 436, "Ġupon": 437, "Ġlo": 438, "ter": 439, "ry": 440, "Ġtoy": 441, "ore": 442, "Ġfun": 443, "ind": 444, "get": 445, "ill": 446, "ame": 447, "Ġas": 448, "Ġj": 449, "ra": 450, "Ġat": 451, "gether": 452, "Ġcat": 453, "Ġdid": 454, "Ġre": 455, "ur": 456, "Ġtogether": 457, "ack": 458, "Ġse": 459, "ly": 460, "Ġtre": 461, "ood": 462, "Ġdog": 463, "ic": 464, "Ġcould": 465, "ted": 466, "Ġcan": 467, "Ġball": 468, "ard": 469, "Ġgir": 470, "Ġtheir": 471, "ark": 472, "Ġgirl": 473, "Ġplayed": 474, "ec": 475, "my": 476, "Ġhim": 477, "Ġgo": 478, "way": 479, "Ġro": 480, "?\"": 481, "hed": 482, "ain": 483, "Ġkn": 484, "Ġle": 485, "Ġout": 486, "hen": 487, "Ġare": 488, "Ġfr": 489, "um": 490, "'t": 491, "Ġthem": 492, "Ġboy": 493, "Ġsad": 494, "ul": 495, "ax": 496, "Ġtree": 497, "other": 498, "oug": 499, "Ġman": 500, "ĊĊ": 501, "Ġloved": 502, "Ġhave": 503, "Ġcl": 504, "Ġfound": 505, "Ġlooked": 506, "Ġsp": 507, "ĠSue": 508, "Ġstar": 509, "Ġsc": 510, "one": 511, "Ġback": 512, "own": 513, "hing": 514, "are": 515, "ĠMax": 516, "Ġlike": 517, "Ġbec": 518, "side": 519, "ful": 520, "Ġme": 521, "op": 522, "ong": 523, "Ġpark": 524, "Ġwould": 525, "ight": 526, "Ġliked": 527, "round": 528, "ĠOne": 529, "elt": 530, "Ġfa": 531, "Ġmake": 532, "Ġcar": 533, "ell": 534, "ĠBut": 535, "Ġfelt": 536, "Ġla": 537, "ĠW": 538, "Ġasked": 539, "ĠSam": 540, "You": 541, "ared": 542, "omet": 543, "ice": 544, "Ġcame": 545, "Ġstarted": 546, "Ġnew": 547, "ag": 548, "Ġsee": 549, "Ġno": 550, "ought": 551, "ouse": 552, "ĠBen": 553, "Ġal": 554, "iled": 555, "Ġag": 556, "Ġother": 557, "Ġgood": 558, "pot": 559, "Ġsomet": 560, "Ġsmall": 561, "Ġbr": 562, "ob": 563, "ss": 564, "Ġsmiled": 565, "ade": 566, "ried": 567, "ings": 568, "Ġsay": 569, "Ġfind": 570, "Ġwor": 571, "Ġaway": 572, "Ġex": 573, "Ġfrom": 574, "Ġthought": 575, "Ġmade": 576, "ĠSpot": 577, "Ġwhat": 578, "Ġhome": 579, "Ġco": 580, "Ġplaying": 581, "ened": 582, "Ġsomething": 583, "ty": 584, "Ġput": 585, "Ġevery": 586, "Ġwal": 587, "ach": 588, "Ġmu": 589, "ia": 590, "uc": 591, "ook": 592, "ie": 593, "ny": 594, "ĠF": 595, "Ġagain": 596, "Ġran": 597, "Ġdown": 598, "ile": 599, "dd": 600, "arn": 601, "Ġtoys": 602, "ave": 603, "Ġpr": 604, "king": 605, "Ġscared": 606, "Ġsome": 607, "Ġtook": 608, "Ġlaug": 609, "ĠJ": 610, "Ġhouse": 611, "Ġfl": 612, "if": 613, "ab": 614, "Ġaround": 615, "Ġbox": 616, "Ġsw": 617, "ure": 618, "ick": 619, "Ġlearn": 620, "ep": 621, "ret": 622, "ish": 623, "oud": 624, "uck": 625, "Ġyour": 626, "Ġlived": 627, "ĠYou": 628, "Ġthings": 629, "Ġsun": 630, "Ġthen": 631, "Ġwill": 632, "ew": 633, "Ġbl": 634, "Ġmy": 635, "as": 636, "Ġwhen": 637, "Ġab": 638, "pped": 639, ",\"": 640, "us": 641, "Ġget": 642, "ank": 643, "Tim": 644, "Th": 645, "Ġch": 646, "Ġlot": 647, "ucy": 648, "oth": 649, "ap": 650, "ump": 651, "ĠMia": 652, "Ġwho": 653, "Ġtried": 654, "ist": 655, "Ġfe": 656, "Ġknow": 657, "Ġgot": 658, "ited": 659, "ust": 660, "Ġmany": 661, "Ġabout": 662, "Ġsays": 663, "Ġint": 664, "ally": 665, "nder": 666, "Ġred": 667, "Ġknew": 668, "Ġpret": 669, "ive": 670, "Ġdec": 671, "Lily": 672, "ise": 673, "ous": 674, "Ġany": 675, "au": 676, "ĠD": 677, "ace": 678, "Ġcare": 679, "Ġmore": 680, "Ġpic": 681, "qu": 682, "fter": 683, "Ġbest": 684, "ause": 685, "Ġop": 686, "Ġbecame": 687, "ĠLucy": 688, "Ġpo": 689, "Ġwater": 690, "ways": 691, "âĢ": 692, "fe": 693, "Ġhug": 694, "Ġlearned": 695, "ĠBob": 696, "Ġexc": 697, "Ġbecause": 698, "ite": 699, "Ġalways": 700, "Ġlook": 701, "Ġoutside": 702, "Ġinto": 703, "Ġroom": 704, "Ġboth": 705, "Ġun": 706, "ided": 707, "ĠSo": 708, "Ġshow": 709, "Ġlaughed": 710, "Ġeat": 711, "Ġdecided": 712, "ĠAnd": 713, "Ġgre": 714, "Ġho": 715, "urp": 716, "udd": 717, "ant": 718, "Ġpe": 719, "ers": 720, "Ġv": 721, "ĠE": 722, "ĠMom": 723, "Ġjump": 724, "nn": 725, "Ġlong": 726, "Ġone": 727, "Ġke": 728, "Ġthis": 729, "Ġrun": 730, "Ġnice": 731, "Yes": 732, "Ġexcited": 733, "Ġfast": 734, "They": 735, "Tom": 736, "Ġfeel": 737, "Ġdad": 738, "Ġtold": 739, "Ġmo": 740, "Ġsk": 741, "Ġinside": 742, "our": 743, "Ġam": 744, "Ġtr": 745, "Ġsl": 746, "ull": 747, "lew": 748, "Ġsor": 749, "Ġtake": 750, "urpr": 751, "Ġrock": 752, "iny": 753, "Ġpretty": 754, "nna": 755, "Ġsurpr": 756, "Ġgave": 757, "Ġeach": 758, "Ġgra": 759, "imal": 760, "ink": 761, "Ġanimal": 762, "Ġmuch": 763, "Ġhow": 764, "Wh": 765, "Ġstr": 766, "Ġold": 767, "Ġneed": 768, "But": 769, "Ġthan": 770, "Ġlet": 771, "ven": 772, "ara": 773, "ro": 774, "ged": 775, "Ġtow": 776, "ess": 777, "Ġunder": 778, "ĠC": 779, "Ġsorry": 780, "Ġor": 781, "Ġwalked": 782, "Ġcle": 783, "and": 784, "ft": 785, "Ġta": 786, "Ġhand": 787, "ge": 788, "Ġte": 789, "ised": 790, "og": 791, "Ġfish": 792, "urn": 793, "urt": 794, "Ġkind": 795, "ff": 796, "Ġclo": 797, "ĠHis": 798, "Ġwat": 799, "ving": 800, "Ġhig": 801, "Ġanimals": 802, "ase": 803, "ĠAmy": 804, "Ġjust": 805, "Ġus": 806, "Ġhappened": 807, "ched": 808, "Ġfood": 809, "pl": 810, "Ġsky": 811, "Ġflow": 812, "here": 813, "Ġsn": 814, "rom": 815, "Ġtry": 816, "Ġlist": 817, "Ġide": 818, "ĠWe": 819, "Ġnear": 820, "gry": 821, "Ġdidn": 822, "Ġidea": 823, "Ġbet": 824, "Ġen": 825, "able": 826, "ate": 827, "ine": 828, "Ġfi": 829, "Ġflew": 830, "eci": 831, "Ġits": 832, "ream": 833, "Thank": 834, "Ġcareful": 835, "Ġshare": 836, "Ġcake": 837, "ex": 838, "Ġheard": 839, "Ġbetter": 840, "Ġtw": 841, "Ġstor": 842, "Ġif": 843, "ecial": 844, "Ġspecial": 845, "Ġdan": 846, "pec": 847, "ber": 848, "ion": 849, "ĠTh": 850, "Ġbear": 851, "Ġlots": 852, "Ġwind": 853, "lf": 854, "more": 855, "Ġanymore": 856, "udden": 857, "Ġclean": 858, "Ġnever": 859, "Ġfo": 860, "Ġdon": 861, "Mom": 862, "Ġgr": 863, "Ġbug": 864, "Ġtal": 865, "ople": 866, "Ġcom": 867, "Ġhard": 868, "Ġbu": 869, "Ġend": 870, "ĠThen": 871, "Ġby": 872, "Ġfly": 873, "uddenly": 874, "Ġmag": 875, "ort": 876, "Ġturn": 877, "Ġfore": 878, "Ġover": 879, "ĠAnna": 880, "ĠEvery": 881, "Ġeven": 882, "rm": 883, "Ġlove": 884, "ĊĊĊ": 885, "Ġcol": 886, "Ġsafe": 887, "Ġpeople": 888, "Ġafter": 889, "Ġbad": 890, "ady": 891, "Ġhigh": 892, "Ġfam": 893, "Ġground": 894, "ak": 895, "Ġdoor": 896, "imb": 897, "Ġcome": 898, "bb": 899, "Ġshiny": 900, "Ġproud": 901, "As": 902, "Ġopened": 903, "Ġclimb": 904, "uff": 905, "Ġhurt": 906, "Ġpicked": 907, "Ġblue": 908, "Ġloud": 909, "pected": 910, "Let": 911, "Ġche": 912, "Ġgive": 913, "Ġway": 914, "Ġsurprised": 915, "Ġgl": 916, "'m": 917, "expected": 918, "Ġunexpected": 919, "ild": 920, "Ġthanked": 921, "Ġcu": 922, "Ġbook": 923, "ummy": 924, "ĠWhen": 925, "ĠFrom": 926, "Ġcall": 927, "Ġcolor": 928, "ĠHer": 929, "Ġfar": 930, "arden": 931, "Ġgarden": 932, "Ġmagic": 933, "Ġever": 934, "ĠK": 935, "Ġpar": 936, "ough": 937, "kay": 938, "Ġim": 939, "Ġhugged": 940, "Ġstill": 941, "Ġplace": 942, "No": 943, "Ġunt": 944, "ool": 945, "Ġoff": 946, "ĠSara": 947, "age": 948, "Ġma": 949, "Ġsmile": 950, "Ġwalk": 951, "ture": 952, "ĠP": 953, "Ġjumped": 954, "Ġfamily": 955, "ĠIn": 956, "Ġuntil": 957, "unny": 958, "iz": 959, "hes": 960, "Ġpa": 961, "em": 962, "Ġshould": 963, "Ġqu": 964, "Ġnow": 965, "ip": 966, "Ġkid": 967, "ct": 968, "Ġstick": 969, "itty": 970, "Ġstay": 971, "Ġstrong": 972, "Ġforest": 973, "Ġsto": 974, "ane": 975, "Ġdra": 976, "aut": 977, "Ġapp": 978, "uffy": 979, "dy": 980, "Ġbro": 981, "Ġboat": 982, "Ġgreat": 983, "Ġsqu": 984, "Ġbra": 985, "Ġbeaut": 986, "Ġtra": 987, "xt": 988, "Ġnext": 989, "Ġjo": 990, "Ġhelped": 991, "ĠSally": 992, "lease": 993, "Ġhat": 994, "les": 995, "Ġhappily": 996, "Ġpicture": 997, "Ġstory": 998, "iful": 999, "ies": 1000, "Ġbeautiful": 1001, "Ġlisten": 1002, "ning": 1003, "th": 1004, "Ġshowed": 1005, "Ġwhile": 1006, "Ġcalled": 1007, "oon": 1008, "Ġmet": 1009, "Ġclos": 1010, "Now": 1011, "Ġkids": 1012, "pt": 1013, "Ġopen": 1014, "Ġfrog": 1015, "Ġmor": 1016, "Ġrem": 1017, "luffy": 1018, "Ġtown": 1019, "Ġsoft": 1020, "Ġeveryone": 1021, "Can": 1022, "It": 1023, "ger": 1024, "Ġimp": 1025, "Ġbeing": 1026, "He": 1027, "When": 1028, "Ġstopped": 1029, "Ġad": 1030, "rel": 1031, "Ġrain": 1032, "Ġangry": 1033, "by": 1034, "Ġyummy": 1035, "Ġwatch": 1036, "bit": 1037, "Ġdoll": 1038, "Ġcouldn": 1039, "Ġca": 1040, "abbit": 1041, "vent": 1042, "ary": 1043, "ĠLet": 1044, "ree": 1045, "Ġtruck": 1046, "Ġde": 1047, "ished": 1048, "ĠKitty": 1049, "Ġmouse": 1050, "Ġrabbit": 1051, "be": 1052, "dded": 1053, "Ġate": 1054, "ress": 1055, "iss": 1056, "Ġwo": 1057, "ĠFluffy": 1058, "Ġlost": 1059, "Ġwarm": 1060, "Ġslide": 1061, "Ġface": 1062, "Ġbrave": 1063, "Ġgame": 1064, "ĠWh": 1065, "Ġkeep": 1066, "Ġfell": 1067, "fore": 1068, "Ġleave": 1069, "Ġflowers": 1070, "Ġtwo": 1071, "Ġcook": 1072, "owl": 1073, "Ġbed": 1074, "Ġcry": 1075, "Ġpus": 1076, "illy": 1077, "so": 1078, "ock": 1079, "Ġsoon": 1080, "Ġnoise": 1081, "Ġgreen": 1082, "Ġalso": 1083, "ĠR": 1084, "That": 1085, "Ġbunny": 1086, "ear": 1087, "Ġnodded": 1088, "Ġwhere": 1089, "gan": 1090, "self": 1091, "Ġfix": 1092, "Ġsat": 1093, "Ġhaving": 1094, "ired": 1095, "Hi": 1096, "Ġyell": 1097, "Ġbefore": 1098, "âĢĿ": 1099, "Ġkept": 1100, "Ġhole": 1101, "Ġpain": 1102, "âĢľ": 1103, "Ġhear": 1104, "ble": 1105, "day": 1106, "Ġstore": 1107, "What": 1108, "Ġhands": 1109, "Ġcatch": 1110, "Look": 1111, "Ġuse": 1112, "irrel": 1113, "Then": 1114, "Ġsing": 1115, "Ġfin": 1116, "az": 1117, "irst": 1118, "Ġused": 1119, "Ġmommy": 1120, "Ġthr": 1121, "Ġexpl": 1122, "Ġfunny": 1123, "Ġsquirrel": 1124, "Ġbirds": 1125, "Ben": 1126, "ĠNow": 1127, "Ġcra": 1128, "Ġlooking": 1129, "uch": 1130, "Ġtired": 1131, "Ġey": 1132, "Ġgoing": 1133, "Ġwait": 1134, "Ġbre": 1135, "Ġkit": 1136, "oy": 1137, "eet": 1138, "aybe": 1139, "leep": 1140, "Ġmean": 1141, "ange": 1142, "thing": 1143, "ught": 1144, "Ġour": 1145, "led": 1146, "Ġpull": 1147, "air": 1148, "Ġdif": 1149, "Ġfav": 1150, "Ġsunny": 1151, "Ġtri": 1152, "Ġpond": 1153, "ember": 1154, "ĠCan": 1155, "Ġhas": 1156, "chen": 1157, "Ġkitchen": 1158, "Ġwr": 1159, "Ġparty": 1160, "Ġthink": 1161, "Ġice": 1162, "Ġflo": 1163, "orn": 1164, "oh": 1165, "Ġwork": 1166, "ting": 1167, "ac": 1168, "We": 1169, "Ġhead": 1170, "uit": 1171, "Ġbus": 1172, "Ġworked": 1173, "Ġmess": 1174, "Ġdr": 1175, "ng": 1176, "Ġreal": 1177, "ĠDo": 1178, "zy": 1179, "ious": 1180, "ohn": 1181, "Ġokay": 1182, "Ġothers": 1183, "Ġsound": 1184, "llow": 1185, "Ġmoral": 1186, "Ġbeh": 1187, "Ġeyes": 1188, "ath": 1189, "Ġsand": 1190, "rew": 1191, "Ġtalk": 1192, "Ġshared": 1193, "Ġadvent": 1194, "Ġz": 1195, "Ġremember": 1196, "ĠâĢľ": 1197, "Ġfavor": 1198, "joy": 1199, "ma": 1200, "Ġfavorite": 1201, "ello": 1202, "Hello": 1203, "Ġright": 1204, "Ġask": 1205, "Ġcuri": 1206, "Ġcut": 1207, "Ġcold": 1208, "Ġri": 1209, "Ġhop": 1210, "Ġcon": 1211, "Ġimport": 1212, "Ġhill": 1213, "Ġmon": 1214, "lly": 1215, "Ġdir": 1216, "imes": 1217, "Ġmaking": 1218, "Ġenjoy": 1219, "Ġfollow": 1220, "Ġcurious": 1221, "Ġvo": 1222, "Ġpie": 1223, "Ġbright": 1224, "Ġyard": 1225, "ĠG": 1226, "At": 1227, "Ġflower": 1228, "ken": 1229, "Don": 1230, "Ġsweet": 1231, "reed": 1232, "Ġmove": 1233, "Ġduck": 1234, "Ġdis": 1235, "Ġrest": 1236, "Ġown": 1237, "Ġdraw": 1238, "Ġfirst": 1239, "Ġimportant": 1240, "Ġtop": 1241, "ĠJack": 1242, "Ġsho": 1243, "Ġcla": 1244, "Ġbegan": 1245, "Ġtall": 1246, "Ġpick": 1247, "Ġblock": 1248, "Ġwatched": 1249, "ount": 1250, "Ġsleep": 1251, "Ġbel": 1252, "Ġlady": 1253, "After": 1254, "Ġnight": 1255, "Ġthing": 1256, "Wow": 1257, "ied": 1258, "Ġrace": 1259, "ster": 1260, "Ġtail": 1261, "Ġhot": 1262, "fere": 1263, "Ġhid": 1264, "Ġhun": 1265, "Ġdiffere": 1266, "Ġagreed": 1267, "Ġfloor": 1268, "Ġshout": 1269, "Ġhere": 1270, "Ġstop": 1271, "ect": 1272, "Ġforg": 1273, "Ġdark": 1274, "ĠThis": 1275, "Ġbag": 1276, "Ġgrass": 1277, "ign": 1278, "Ġworry": 1279, "Ġsong": 1280, "Ġtable": 1281, "Ġtast": 1282, "Ġtell": 1283, "que": 1284, "Ġprin": 1285, "Ġneeded": 1286, "Ġleaves": 1287, "aring": 1288, "Ġvoice": 1289, "Ġyellow": 1290, "Ġread": 1291, "aper": 1292, "Ġfarm": 1293, "ĠFin": 1294, "Ġru": 1295, "Ġtrees": 1296, "Ġdress": 1297, "Ġhair": 1298, "Ġswing": 1299, "Why": 1300, "Ġdifferent": 1301, "Ġdel": 1302, "Ġadventure": 1303, "Ġwalking": 1304, "Ġturned": 1305, "Ġsurprise": 1306, "Ġplease": 1307, "âĢĻ": 1308, "ĠMr": 1309, "Ġhungry": 1310, "Max": 1311, "Ġdoes": 1312, "Ġcars": 1313, "ĠSuddenly": 1314, "Ġcolors": 1315, "ĠDad": 1316, "oom": 1317, "Suddenly": 1318, "Ġlaugh": 1319, "bo": 1320, "Sue": 1321, "Ġcloser": 1322, "ached": 1323, "Sam": 1324, "Ġpretend": 1325, "co": 1326, "Ġlion": 1327, "ient": 1328, "ered": 1329, "ila": 1330, "Ġbroken": 1331, "Ġwood": 1332, "Ġprom": 1333, "Ġcried": 1334, "bye": 1335, "Ġwet": 1336, "Ġpiece": 1337, "Ġfriendly": 1338, "ĠTimmy": 1339, "Ġfull": 1340, "Ġbehind": 1341, "Ġtrain": 1342, "isy": 1343, "Ġdance": 1344, "Anna": 1345, "ppy": 1346, "Ġtouch": 1347, "Ġclimbed": 1348, "Ġanother": 1349, "Ġdanc": 1350, "af": 1351, "So": 1352, "Ġgone": 1353, "where": 1354, "Ġapple": 1355, "Ġsmell": 1356, "bbed": 1357, "Ġswim": 1358, "Ġste": 1359, "cked": 1360, "Ġblocks": 1361, "ater": 1362, "Ġfeeling": 1363, "sh": 1364, "Ġpaper": 1365, "ĠThat": 1366, "She": 1367, "Ġamaz": 1368, "ĠAs": 1369, "Ġant": 1370, "Ġper": 1371, "Ġbutter": 1372, "Ġrunning": 1373, "ĠJane": 1374, "Ġreached": 1375, "Ġhelping": 1376, "Ġlistened": 1377, "Ġfair": 1378, "iced": 1379, "Ġgoodbye": 1380, "Ġready": 1381, "av": 1382, "Ġonly": 1383, "Ġhold": 1384, "Ġlight": 1385, "Ġac": 1386, "ray": 1387, "aby": 1388, "ike": 1389, "ĠO": 1390, "Ġroll": 1391, "Sara": 1392, "Ġcream": 1393, "ĠBobo": 1394, "Ġrepl": 1395, "Ġdri": 1396, "key": 1397, "Ġsit": 1398, "Ġpushed": 1399, "Ġfight": 1400, "Ġslow": 1401, "Ġplan": 1402, "Ġclose": 1403, "red": 1404, "ĠAll": 1405, "Ġless": 1406, "Ġdone": 1407, "pe": 1408, "Ġwag": 1409, "Ġwall": 1410, "Ġowl": 1411, "Ġcool": 1412, "Ġsees": 1413, "Ġmust": 1414, "Ġglad": 1415, "Ġfruit": 1416, "Ġwise": 1417, "ield": 1418, "Ġtiny": 1419, "Ġwonder": 1420, "Ġmoment": 1421, "Ġtrying": 1422, "Ġstuck": 1423, "ather": 1424, "Ġdream": 1425, "In": 1426, "Ġthrough": 1427, "Ġdin": 1428, "ash": 1429, "Ġwished": 1430, "Ġpen": 1431, "Ġfire": 1432, "ames": 1433, "Ġreach": 1434, "Ġthank": 1435, "Ġbar": 1436, "Ġbeen": 1437, "Ġbaby": 1438, "Ġwindow": 1439, "Ġjoin": 1440, "Ġexplore": 1441, "ott": 1442, "Ġlooks": 1443, "Ġdoing": 1444, "ĠEveryone": 1445, "Ġar": 1446, "Ġbuy": 1447, "Ġbit": 1448, "Ġshouted": 1449, "Ġair": 1450, "Mia": 1451, "Ġhide": 1452, "Ġbuild": 1453, "ĠMommy": 1454, "Ġnest": 1455, "Ġswam": 1456, "Ġscary": 1457, "Ġfall": 1458, "Ġcoming": 1459, "Ġcloud": 1460, "Ġland": 1461, "Ġbran": 1462, "oney": 1463, "Ġwin": 1464, "Ġblew": 1465, "Ġseen": 1466, "andy": 1467, "Ġperf": 1468, "ask": 1469, "Ġdirty": 1470, "Ġchild": 1471, "Ġheld": 1472, "Ġbooks": 1473, "avy": 1474, "ph": 1475, "Ġbigger": 1476, "Ġreplied": 1477, "Ġquick": 1478, "Ġleft": 1479, "Ġmat": 1480, "ely": 1481, "Ġunderst": 1482, "Ġmight": 1483, "Ġtreat": 1484, "ndma": 1485, "Ġcolorful": 1486, "Ġpulled": 1487, "Ġgrabbed": 1488, "Ġwhy": 1489, "Ġturns": 1490, "Okay": 1491, "Ġdro": 1492, "Ġbutterf": 1493, "ized": 1494, "Ġremembered": 1495, "icy": 1496, "Ġfill": 1497, "Ġname": 1498, "ucky": 1499, "Ġcup": 1500, "Ġchair": 1501, "Ġcast": 1502, "Ġbroke": 1503, "orm": 1504, "Ġsometimes": 1505, "Ġcount": 1506, "aisy": 1507, "Ġthree": 1508, "Ġsure": 1509, "oup": 1510, "ation": 1511, "Ġspl": 1512, "Ġhopped": 1513, "Ġpink": 1514, "ton": 1515, "Ġstayed": 1516, "Ġsnow": 1517, "Ġjob": 1518, "Ġclapped": 1519, "up": 1520, "Oh": 1521, "Ġgames": 1522, "der": 1523, "Ġbott": 1524, "Ġgif": 1525, "ee": 1526, "Ġwaited": 1527, "'re": 1528, "ĠThere": 1529, "Ġplant": 1530, "Ġnoticed": 1531, "Ġgrow": 1532, "Ġlesson": 1533, "Ġballoon": 1534, "ix": 1535, "Ġanything": 1536, "Ġpictures": 1537, "Ġwoods": 1538, "outh": 1539, "Ġmouth": 1540, "Ġpaint": 1541, "ĠAfter": 1542, "uddy": 1543, "Ġwaved": 1544, "Ġset": 1545, "ower": 1546, "Ġenjoyed": 1547, "room": 1548, "Ġspot": 1549, "Ġalone": 1550, "Ġpot": 1551, "Ġcont": 1552, "This": 1553, "Ġsea": 1554, "Ġbrother": 1555, "ds": 1556, "Ġlikes": 1557, "art": 1558, "oun": 1559, "amp": 1560, "Her": 1561, "Ġtight": 1562, "\".": 1563, "Ġyear": 1564, "Ġthrew": 1565, "Ġheavy": 1566, "Ġwhite": 1567, "Ġfollowed": 1568, "Ġquickly": 1569, "Ġgent": 1570, "Ġbutterfly": 1571, "ins": 1572, "Spot": 1573, "Ġmiss": 1574, "Ġcookies": 1575, "ape": 1576, "Ġju": 1577, "Ġdeep": 1578, "asure": 1579, "olly": 1580, "Ġeverywhere": 1581, "de": 1582, "Lucy": 1583, "ze": 1584, "Ġbee": 1585, "Ġpat": 1586, "oe": 1587, "ĠJohn": 1588, "ries": 1589, "aught": 1590, "Ġmar": 1591, "Bob": 1592, "Ġworld": 1593, "ister": 1594, "cle": 1595, "Ġclot": 1596, "Ġwrong": 1597, "Ġclothes": 1598, "Ġcastle": 1599, "Ġcre": 1600, "Ġwear": 1601, "less": 1602, "lc": 1603, "Ġpu": 1604, "ross": 1605, "Ġmum": 1606, "Ġbutton": 1607, "Ġleaf": 1608, "iet": 1609, "Ġnap": 1610, "ĠBuddy": 1611, "Ġve": 1612, "ner": 1613, "Ġquiet": 1614, "Ġmix": 1615, "Ġkey": 1616, "arent": 1617, "Ġmakes": 1618, "ang": 1619, "Ġbrought": 1620, "Ġround": 1621, "row": 1622, "Ġparent": 1623, "ully": 1624, "ued": 1625, "rot": 1626, "Ġwants": 1627, "Ġwell": 1628, "Ġhimself": 1629, "ĠDaisy": 1630, "os": 1631, "Ġwon": 1632, "Ġride": 1633, "Ġdelic": 1634, "Ġfield": 1635, "man": 1636, "Ġdanced": 1637, "Ġbreak": 1638, "Ġarm": 1639, "Ġtower": 1640, "ĠLila": 1641, "Do": 1642, "Ġsign": 1643, "ĠWhat": 1644, "fully": 1645, "Ġsnack": 1646, "Ġhit": 1647, "thy": 1648, "Ġdrag": 1649, "Ġfaster": 1650, "Ġking": 1651, "Ġgift": 1652, "Ġtalked": 1653, "Ġforgot": 1654, "Ġwish": 1655, "Ġleg": 1656, "Ġbeach": 1657, "gg": 1658, "Ġsister": 1659, "Ġriver": 1660, "Ġmus": 1661, "cess": 1662, "ence": 1663, "Ġfinished": 1664, "Ġbranch": 1665, "Ġdry": 1666, "Ġcomp": 1667, "leph": 1668, "ves": 1669, "itten": 1670, "cy": 1671, "Ġsharing": 1672, "From": 1673, "Ġpol": 1674, "Ġbike": 1675, "ĠInside": 1676, "Ġdinner": 1677, "Ġdragon": 1678, "Ġfur": 1679, "ards": 1680, "Ġra": 1681, "Ġdanger": 1682, "Ġrel": 1683, "Ġem": 1684, "Ġreally": 1685, "Ġbor": 1686, "ipp": 1687, "Ġvis": 1688, "Ġunderstand": 1689, "Ġshin": 1690, "ance": 1691, "ĠTo": 1692, "Ġblack": 1693, "John": 1694, "ren": 1695, "Ġbottle": 1696, "Ġmonkey": 1697, "Ġfox": 1698, "His": 1699, "eddy": 1700, "Ġmonster": 1701, "Ġpig": 1702, "Ġsmart": 1703, "ĠAt": 1704, "Ġpoin": 1705, "Ġworried": 1706, "Ġrocks": 1707, "Ġcontin": 1708, "Amy": 1709, "Ġgu": 1710, "Ġcarefully": 1711, "Ġbowl": 1712, "Ġsomeone": 1713, "imi": 1714, "ctor": 1715, "Ġfairy": 1716, "Ġtoday": 1717, "Ġatt": 1718, "ast": 1719, "Ġfilled": 1720, "Ġside": 1721, "Ġpudd": 1722, "Ġeating": 1723, "ush": 1724, "Ġwelc": 1725, "Ġel": 1726, "ses": 1727, "vel": 1728, "Ġgi": 1729, "Ġcow": 1730, "Ġboun": 1731, "itting": 1732, "Ġsnake": 1733, "Ġbrown": 1734, "ead": 1735, "Ġwhe": 1736, "Ġpromised": 1737, "Ġfan": 1738, "While": 1739, "Ġsilly": 1740, "Ġpet": 1741, "Ġhappen": 1742, "Just": 1743, "Ġeverything": 1744, "Ġyes": 1745, "ts": 1746, "Ġres": 1747, "Ġparents": 1748, "ĠSoon": 1749, "ĠMaybe": 1750, "Ġsoup": 1751, "Ġvisit": 1752, "Ġmusic": 1753, "Ġmud": 1754, "Ġletter": 1755, "ated": 1756, "Ġfree": 1757, "Ġelse": 1758, "Ġpieces": 1759, "Ġroad": 1760, "Ġchildren": 1761, "stead": 1762, "Ġbite": 1763, "Ġshop": 1764, "Ġsang": 1765, "Ġcontinued": 1766, "Fin": 1767, "Ġtalking": 1768, "Ġperfect": 1769, "Ġkite": 1770, "zz": 1771, "Ġflying": 1772, "Ġegg": 1773, "Ġsmiles": 1774, "Ġthrow": 1775, "Ġrealized": 1776, "ĠBilly": 1777, "Ġmail": 1778, "Ġear": 1779, "ĠSarah": 1780, "ord": 1781, "Ġwords": 1782, "ĠEm": 1783, ".âĢĿ": 1784, "Ġamazing": 1785, "cket": 1786, "Ġlaughing": 1787, "Ġjar": 1788, "Ġwagged": 1789, "Ġorange": 1790, "Ġque": 1791, "Ġsec": 1792, "Ġmoved": 1793, "Ġsitting": 1794, "Ġenough": 1795, "Ġclosed": 1796, "ĠZ": 1797, "Ġpass": 1798, "Ġwithout": 1799, "Ġshining": 1800, "Ġmother": 1801, "gly": 1802, "Ġsmo": 1803, "Ġstand": 1804, "Ġcrab": 1805, "Ġbuck": 1806, "Ġsail": 1807, "Ġrope": 1808, "Ġdangerous": 1809, "fort": 1810, "Ġstrange": 1811, "Ġsecret": 1812, "Ġbarked": 1813, "Ġbath": 1814, "Ġstu": 1815, "Ġtasty": 1816, "Ġdrink": 1817, "ĠMimi": 1818, "unch": 1819, "Ġwelcome": 1820, "fish": 1821, "ella": 1822, "Ġpaw": 1823, "used": 1824, "iver": 1825, "board": 1826, "Ġcrying": 1827, "Ġwhist": 1828, "Ġpast": 1829, "Ġheal": 1830, "Ġce": 1831, "ises": 1832, "Ġlon": 1833, "Ġcandy": 1834, "Ġliving": 1835, "ĠJoe": 1836, "Ġ-": 1837, "Ġhigher": 1838, "ches": 1839, "Maybe": 1840, "Ġlonely": 1841, "Ġpre": 1842, "Ġowner": 1843, "ĠCh": 1844, "Ġshoes": 1845, "Ġbelie": 1846, "Ġsack": 1847, "Ġfarmer": 1848, "Please": 1849, "Ġmorning": 1850, "chool": 1851, "ato": 1852, "arm": 1853, "Ġtom": 1854, "ĠJen": 1855, "gy": 1856, "Ġswings": 1857, "Ġdelicious": 1858, "Ġpurp": 1859, "ract": 1860, "Ġschool": 1861, "llie": 1862, "isk": 1863, "Ġscream": 1864, "Ġteac": 1865, "ible": 1866, "Ġpush": 1867, "Ġfinally": 1868, "!âĢĿ": 1869, "Ġstone": 1870, "Ġrolled": 1871, "Ġph": 1872, "Ġgrandma": 1873, "lephant": 1874, "lder": 1875, "Mommy": 1876, "Ġpuddle": 1877, "ich": 1878, "Ġstre": 1879, "Ġdolls": 1880, "me": 1881, "ĠBl": 1882, "Ġgetting": 1883, "Ġblank": 1884, "ire": 1885, "ama": 1886, "Ġpurple": 1887, "Ġlake": 1888, "Ġasks": 1889, "lla": 1890, "asket": 1891, "Ġyears": 1892, "Ġtrou": 1893, "Ġshell": 1894, "Ġmad": 1895, "ased": 1896, "Ġcaught": 1897, "Ġblanket": 1898, "Ġcorn": 1899, "set": 1900, "Ġtreasure": 1901, "Ġwore": 1902, "Ġruns": 1903, "Ġmoney": 1904, "ub": 1905, "Ġbasket": 1906, "Ġhoped": 1907, "ons": 1908, "Ġpile": 1909, "iskers": 1910, "Ġsame": 1911, "eo": 1912, "Ġsinging": 1913, "app": 1914, "Ġherself": 1915, "ey": 1916, "Ġwings": 1917, "Ġpers": 1918, "Ġapples": 1919, "cks": 1920, "Ġcute": 1921, "Ġben": 1922, "br": 1923, "Ġmine": 1924, "Ġje": 1925, "Ġbat": 1926, "ĠTommy": 1927, "igh": 1928, "Ġplane": 1929, "Ġgentle": 1930, "Ġcarrot": 1931, "Ġcray": 1932, "Ġteacher": 1933, "Ġelephant": 1934, "Ġcoat": 1935, "Ġsear": 1936, "Ġpill": 1937, "Ġdropped": 1938, "Ġballs": 1939, "Ġstart": 1940, "Ġfit": 1941, "Ġteddy": 1942, "Ġdays": 1943, "thday": 1944, "irthday": 1945, "Ġcour": 1946, "Ġdoctor": 1947, "Finally": 1948, "ined": 1949, "Ġwar": 1950, "Ġcourse": 1951, "Ġforever": 1952, "aughty": 1953, "Ġwoke": 1954, "Ġjoy": 1955, "Ġnaughty": 1956, "Ġhiding": 1957, "Ġseed": 1958, "Ġcard": 1959, "Ġpromise": 1960, "Ġmin": 1961, "Ġbring": 1962, "ilk": 1963, "ĠWhiskers": 1964, "Ġmost": 1965, "Ġarri": 1966, "Ġteach": 1967, "Ġspin": 1968, "Ġcookie": 1969, "Ġcr": 1970, "Ġband": 1971, "umpy": 1972, "ol": 1973, "ator": 1974, "Ġshap": 1975, "Ġfence": 1976, "Ġchee": 1977, "Ġrob": 1978, "Ġbush": 1979, "ĠGra": 1980, "ĠBlue": 1981, "Ġthinks": 1982, "Ġshr": 1983, "Ġmilk": 1984, "Ġlunch": 1985, "Ġugly": 1986, "Ġeas": 1987, "Ġbirthday": 1988, "arp": 1989, "Ġnose": 1990, "Ġtouc": 1991, "ose": 1992, "Ġjuice": 1993, "ĠThank": 1994, "Ġvill": 1995, "Ġob": 1996, "Ġgrew": 1997, "Ġbow": 1998, "Ġpop": 1999, "Ġbelong": 2000, "sw": 2001, "Ġshapes": 2002, "Ġansw": 2003, "fused": 2004, "itch": 2005, "ipped": 2006, "Ġsharp": 2007, "ĠFred": 2008, "ass": 2009, "ail": 2010, "Ġcreat": 2011, "Ġyoung": 2012, "Ġheart": 2013, "umber": 2014, "sy": 2015, "irt": 2016, "Ġbench": 2017, "ier": 2018, "Ġstreet": 2019, "ĠBella": 2020, "bow": 2021, "'ll": 2022, "ĠLeo": 2023, "Ġseem": 2024, "Jack": 2025, "Ġbone": 2026, "erry": 2027, "Ġwra": 2028, "Ġmark": 2029, "Ġlate": 2030, "Ġable": 2031, "sc": 2032, "eter": 2033, "ball": 2034, "ale": 2035, "Ġbelieve": 2036, "Ġrocket": 2037, "Ġzoom": 2038, "Ġbucket": 2039, "Ġcoin": 2040, "Ġbread": 2041, "Ġrobot": 2042, "Ġpocket": 2043, "Ġpower": 2044, "Ġmagical": 2045, "Ġdirt": 2046, "Ġtouched": 2047, "Ġspoon": 2048, "Ġshy": 2049, "Ġkiss": 2050, "Ġinc": 2051, "Ġslowly": 2052, "Ġshook": 2053, "Ġbusy": 2054, "Ġtwins": 2055, "Ġkitten": 2056, "Ġprob": 2057, "Ġcheered": 2058, "Ġarrived": 2059, "Ġshake": 2060, "Ġfeels": 2061, "Ġlem": 2062, "Ġcraw": 2063, "Ġseat": 2064, "Ġneck": 2065, "Ġcarry": 2066, "Ġtrip": 2067, "Ġstorm": 2068, "ling": 2069, "Ġamazed": 2070, "ung": 2071, "Ġspo": 2072, "Ġfew": 2073, "ĊĊĠ": 2074, "eared": 2075, "Ġvillage": 2076, "igg": 2077, "OK": 2078, "Ġbell": 2079, "lem": 2080, "idge": 2081, "Ġtaking": 2082, "Ġstories": 2083, "Ġpatient": 2084, "Ġgrumpy": 2085, "Ġfixed": 2086, "Ġcoll": 2087, "oose": 2088, "Ġproblem": 2089, "Ġnut": 2090, "urtle": 2091, "ost": 2092, "Ġwheel": 2093, "Good": 2094, "Ġsounds": 2095, "Ġwonderful": 2096, "Ġlive": 2097, "Ġgray": 2098, "Ġdist": 2099, "irp": 2100, "Ġrainbow": 2101, "una": 2102, "Ġwave": 2103, "Ġtowards": 2104, "Ġsug": 2105, "Ġhuge": 2106, "Ġspark": 2107, "Ġrude": 2108, "Ġdriver": 2109, "Ġhor": 2110, "Ġcover": 2111, "ors": 2112, "fortable": 2113, "Ġwhistle": 2114, "Ġsongs": 2115, "Ġcart": 2116, "ĠMark": 2117, "Ġcir": 2118, "emy": 2119, "Ġwide": 2120, "ĠMomo": 2121, "Ġsal": 2122, "epend": 2123, "Lila": 2124, "Ġrec": 2125, "Ġdes": 2126, "unt": 2127, "ens": 2128, "Ġstring": 2129, "Ġdisapp": 2130, "kin": 2131, "elly": 2132, "bble": 2133, "Ġtreats": 2134, "Ġsuc": 2135, "pping": 2136, "Ġpath": 2137, "Ġmeet": 2138, "iling": 2139, "Ġupset": 2140, "Ġholding": 2141, "Ġcheese": 2142, "alm": 2143, "Ġmoon": 2144, "oph": 2145, "Be": 2146, "Ġturtle": 2147, "Ġworm": 2148, "Ġwild": 2149, "Of": 2150, "ourn": 2151, "Sure": 2152, "Ġlay": 2153, "Ġhugs": 2154, "ĠN": 2155, "Ġgrab": 2156, "Ġfighting": 2157, "Ġlife": 2158, "Ġgiant": 2159, "Ġdi": 2160, "Ġpuppy": 2161, "Ġpeace": 2162, "Ġjourn": 2163, "Ġbugs": 2164, "umb": 2165, "ring": 2166, "Ġsmooth": 2167, "Ġjew": 2168, "adow": 2169, "Ġnote": 2170, "Ġjoke": 2171, "Ġban": 2172, "Ġnoises": 2173, "Ġjewel": 2174, "Ġcloth": 2175, "ĠJust": 2176, "ĠEmma": 2177, "Ġsmelly": 2178, "Ġsour": 2179, "Ġmist": 2180, "Ġhoney": 2181, "ountain": 2182, "Ġlucky": 2183, "Ġinv": 2184, "Ġser": 2185, "Ġlanded": 2186, "Ġcou": 2187, "ular": 2188, "izzy": 2189, "onest": 2190, "ĠOn": 2191, "pper": 2192, "Ġnet": 2193, "St": 2194, "Ġthin": 2195, "Ġrad": 2196, "Ġcave": 2197, "aur": 2198, "Ġprincess": 2199, "Ġhonest": 2200, "Ġbeak": 2201, "ĠAnn": 2202, "not": 2203, "ife": 2204, "Ġjelly": 2205, "Ġdrive": 2206, "Ġboss": 2207, "isa": 2208, "Ġpart": 2209, "Ġchew": 2210, "Ġbanan": 2211, "ery": 2212, "Ġseek": 2213, "Ġcannot": 2214, "Ġmissed": 2215, "Ġact": 2216, "ĠMolly": 2217, "Ġstars": 2218, "Ġmed": 2219, "Ġba": 2220, "ove": 2221, "Ġdogs": 2222, "read": 2223, "Ġsuddenly": 2224, "Ġsick": 2225, "Ġign": 2226, "sp": 2227, "Ġoven": 2228, "Ġdrove": 2229, "lower": 2230, "Ġbri": 2231, "Ġtea": 2232, "Ġstep": 2233, "Ġsplas": 2234, "ĠFinally": 2235, "Ġshelf": 2236, "iger": 2237, "Ġexp": 2238, "Ġsnowman": 2239, "Ġwasn": 2240, "Ġinstead": 2241, "Hey": 2242, "Ġtaste": 2243, "Ġfoot": 2244, "Ġfle": 2245, "ĠDog": 2246, "Ġmaybe": 2247, "Ġducks": 2248, "ope": 2249, "ert": 2250, "Later": 2251, "Ġsel": 2252, "Ġacross": 2253, "ateful": 2254, "Ġsandw": 2255, "Ġhelpful": 2256, "Ġfancy": 2257, "Ġadventures": 2258, "est": 2259, "Ġbought": 2260, "Ġwash": 2261, "Ġorgan": 2262, "ian": 2263, "ere": 2264, "Ġcross": 2265, "To": 2266, "Ġline": 2267, "Ġglow": 2268, "ĠRemy": 2269, "Ġgrateful": 2270, "Ġcomes": 2271, "Ġslid": 2272, "Ġforget": 2273, "Ġconfused": 2274, "Ġash": 2275, "let": 2276, "idy": 2277, "Ġspe": 2278, "Ġpuzz": 2279, "Ġpillow": 2280, "Ġhealthy": 2281, "Ġchange": 2282, "Ġpract": 2283, "Ġdish": 2284, "Ġzoo": 2285, "ĠOllie": 2286, "oomy": 2287, "oppy": 2288, "Ġval": 2289, "Ġstepped": 2290, "erest": 2291, "Ġlast": 2292, "Ġlad": 2293, "Ġinterest": 2294, "Ġcap": 2295, "Ġselfish": 2296, "Ġelder": 2297, "Ġcho": 2298, "ity": 2299, "Ġworking": 2300, "Ġwhole": 2301, "Ġelderly": 2302, "Ġeasy": 2303, "ward": 2304, "Ġwatching": 2305, "Ġsticks": 2306, "Ġhope": 2307, "Ġanyone": 2308, "col": 2309, "Ġmessy": 2310, "Ġcalm": 2311, "amed": 2312, "Ġtakes": 2313, "Ġsave": 2314, "Ġpri": 2315, "Ġforgive": 2316, "Ġdaddy": 2317, "Ġchased": 2318, "ize": 2319, "irpy": 2320, "Ġweak": 2321, "Ġteam": 2322, "Ġmyster": 2323, "Ġav": 2324, "Ġwrite": 2325, "Ġshirt": 2326, "Ġladder": 2327, "oc": 2328, "Ġwolf": 2329, "Ġtape": 2330, "to": 2331, "pect": 2332, "Ġsplash": 2333, "Ġlemon": 2334, "Ġlegs": 2335, "Ġclever": 2336, "ĠSp": 2337, "Ġphone": 2338, "Ġmind": 2339, "Ġhorse": 2340, "Ġfeather": 2341, "Ġplants": 2342, "Ġperson": 2343, "Ġlonger": 2344, "ider": 2345, "Ġtidy": 2346, "Ġstret": 2347, "Ġprot": 2348, "Ġpour": 2349, "Ġjog": 2350, "ork": 2351, "ever": 2352, "Ġemp": 2353, "izz": 2354, "Soon": 2355, "Ġpan": 2356, "Ġlater": 2357, "Ġempty": 2358, "Ġbark": 2359, "Ġalong": 2360, "ĠCat": 2361, "Sally": 2362, "Ġseemed": 2363, "Ġfaces": 2364, "Ġboot": 2365, "ĠBu": 2366, "Ġpretended": 2367, "Ġlock": 2368, "Ġcozy": 2369, "bbles": 2370, "Ġsleepy": 2371, "Ġlift": 2372, "ions": 2373, "Ġhum": 2374, "iting": 2375, "Ġwaiting": 2376, "Ġstir": 2377, "Ġsaved": 2378, "Ġsu": 2379, "Ġfinish": 2380, "llo": 2381, "Ġswimm": 2382, "Ġmach": 2383, "pill": 2384, "pillar": 2385, "Come": 2386, "Ġret": 2387, "ually": 2388, "ained": 2389, "?âĢĿ": 2390, "Ġspicy": 2391, "Ġcheer": 2392, "Ġchick": 2393, "Ġbounce": 2394, "ĠCome": 2395, "Ġscreamed": 2396, "Ġreturn": 2397, "Ġring": 2398, "Ġgoat": 2399, "ĠLisa": 2400, "Ġent": 2401, "ult": 2402, "Ġpool": 2403, "Ġfake": 2404, "ĠChirpy": 2405, "den": 2406, "Ġjumping": 2407, "ĠDaddy": 2408, "Ġsupp": 2409, "Ġsuch": 2410, "Ġinteresting": 2411, "Ġwondered": 2412, "Ġtie": 2413, "Ġclouds": 2414, "Ġprint": 2415, "Ġpin": 2416, "Ġmistake": 2417, "Ġfruits": 2418, "ĠDucky": 2419, "unk": 2420, "Ġdrank": 2421, "ocked": 2422, "Ġspray": 2423, "erpillar": 2424, "Ġthough": 2425, "Ġplate": 2426, "Ġeag": 2427, "Ġcaterpillar": 2428, "Ġstra": 2429, "Ġbossy": 2430, "ĠTogether": 2431, "issors": 2432, "dge": 2433, "box": 2434, "Ġonto": 2435, "Ġgather": 2436, "eth": 2437, "Ġkick": 2438, "Ġdrew": 2439, "Ġbuilding": 2440, "ĠBenny": 2441, "Ġswimming": 2442, "Ġscissors": 2443, "Ġmachine": 2444, "lebr": 2445, "Ġrich": 2446, "ĠWith": 2447, "ĠTV": 2448, "ormal": 2449, "Ġsheep": 2450, "Ġnumber": 2451, "Ġhidden": 2452, "Ġgives": 2453, "Ġcelebr": 2454, "ĠSt": 2455, "ĠElla": 2456, "ont": 2457, "Ġnormal": 2458, "oof": 2459, "ek": 2460, "Ġwing": 2461, "Ġbrush": 2462, "Kitty": 2463, "Ġlovely": 2464, "Ġfurry": 2465, "Ġexplor": 2466, "Ġcrayons": 2467, "Ġcleaned": 2468, "Ġarms": 2469, "Ġtrouble": 2470, "Ġglue": 2471, "Ġfront": 2472, "ment": 2473, "izza": 2474, "aced": 2475, "Ġspider": 2476, "Ġpenc": 2477, "Ġpack": 2478, "Ġfing": 2479, "Ġcher": 2480, "ĠMy": 2481, "Ġsugar": 2482, "Ġpointed": 2483, "Ġpencil": 2484, "Ġmatch": 2485, "Ġlar": 2486, "Ġcage": 2487, "ĠDoggy": 2488, "elp": 2489, "Ġmel": 2490, "Ġappeared": 2491, "ĠTheir": 2492, "ĠBunny": 2493, "urse": 2494, "Ġputs": 2495, "Ġsmelled": 2496, "Ġprince": 2497, "osaur": 2498, "oop": 2499, "ned": 2500, "Ġsur": 2501, "Ġpray": 2502, "Ġgently": 2503, "Ġgate": 2504, "ĠLuna": 2505, "ĠGrandma": 2506, "yard": 2507, "Ġsearch": 2508, "Ġmatter": 2509, "Ġdinosaur": 2510, "Ġbackyard": 2511, "And": 2512, "Ġfear": 2513, "Ġfil": 2514, "Ġdrum": 2515, "pa": 2516, "Ġship": 2517, "Ġclass": 2518, "Ġtowel": 2519, "Ġqueen": 2520, "Ġgun": 2521, "Ġcircle": 2522, "Ġvan": 2523, "Ġsmiling": 2524, "Ġcouch": 2525, "ĠGo": 2526, "aughter": 2527, "Ġtear": 2528, "Ġnearby": 2529, "Ġimag": 2530, "Ġicy": 2531, "Ġyelled": 2532, "Ġashamed": 2533, "Ġpowerful": 2534, "gest": 2535, "Ġwand": 2536, "Ġquest": 2537, "Ġplaces": 2538, "Ġflag": 2539, "Ġcri": 2540, "ĠSomet": 2541, "ĠJerry": 2542, "Help": 2543, "Ġlaw": 2544, "lev": 2545, "Ġwom": 2546, "Ġlamp": 2547, "Ġaf": 2548, "ĠWhy": 2549, "orrow": 2550, "icked": 2551, "Ġwoman": 2552, "Ġpizza": 2553, "Ġmir": 2554, "Ġlarge": 2555, "Ġdaughter": 2556, "Ġcarried": 2557, "ĠMama": 2558, "My": 2559, "Ġwrap": 2560, "Ġtrust": 2561, "Ġjourney": 2562, "Ġglass": 2563, "Ġap": 2564, "ym": 2565, "Stop": 2566, "Ġtrue": 2567, "Ġrub": 2568, "Ġneigh": 2569, "Ġgas": 2570, "ĠJim": 2571, "vous": 2572, "ror": 2573, "ones": 2574, "Ġtries": 2575, "Ġneighb": 2576, "Ġbal": 2577, "ique": 2578, "Ġunique": 2579, "Ġjeep": 2580, "Ġignor": 2581, "Ġemb": 2582, "ĠJill": 2583, "isp": 2584, "ensive": 2585, "Ġwearing": 2586, "Ġfright": 2587, "Ġexpensive": 2588, "Ġtomorrow": 2589, "Ġhur": 2590, "Ġgoes": 2591, "ĠIf": 2592, "itter": 2593, "Ġloves": 2594, "Ġdizzy": 2595, "ĠBe": 2596, "ced": 2597, "Ġweird": 2598, "Ġsaf": 2599, "Ġdig": 2600, "Ġants": 2601, "ugg": 2602, "raid": 2603, "Ġthese": 2604, "Ġmirror": 2605, "Ġhello": 2606, "Ġdancing": 2607, "Ġchase": 2608, "ĠBobby": 2609, "Ġspring": 2610, "Ġreg": 2611, "Ġafraid": 2612, "Ġscar": 2613, "Ġnothing": 2614, "ĠBr": 2615, "rass": 2616, "arrass": 2617, "Ġpoor": 2618, "Ġfrightened": 2619, "ĠTiny": 2620, "ndpa": 2621, "mer": 2622, "kn": 2623, "Ġwhisp": 2624, "Ġtest": 2625, "Ġner": 2626, "Ġlazy": 2627, "Ġembarrass": 2628, "Ġeager": 2629, "Ġcand": 2630, "iff": 2631, "Ġprotect": 2632, "aw": 2633, "Ġtomato": 2634, "Ġstood": 2635, "Ġdest": 2636, "ness": 2637, "known": 2638, "Ġsuccess": 2639, "Ġnervous": 2640, "bby": 2641, "Ġsplashed": 2642, "Ġpuzzle": 2643, "Ġbridge": 2644, "Ġwis": 2645, "Ġwip": 2646, "Ġunknown": 2647, "Ġpay": 2648, "Ġclay": 2649, "Ġbake": 2650, "Ġincred": 2651, "Ġimpress": 2652, "Ġgold": 2653, "Ġgigg": 2654, "Ġgen": 2655, "Ġdecor": 2656, "Ġcreative": 2657, "ventually": 2658, "ina": 2659, "Ġfeet": 2660, "era": 2661, "Ġincredible": 2662, "ĠRex": 2663, "Ġtent": 2664, "Ġsol": 2665, "Ġsock": 2666, "Ġsandwich": 2667, "Ġlead": 2668, "Ġteeth": 2669, "Ġswan": 2670, "any": 2671, "Ġuseful": 2672, "Ġclock": 2673, "ĠMary": 2674, "ĠHow": 2675, "ute": 2676, "ual": 2677, "Ġsteak": 2678, "Ġrespect": 2679, "Ġboring": 2680, "ĠBird": 2681, "ĠBear": 2682, "berry": 2683, "Ġstraw": 2684, "Ġsquare": 2685, "Ġsoap": 2686, "Ġdisco": 2687, "lves": 2688, "Ġpres": 2689, "Ġmixed": 2690, "Ġfool": 2691, "Ġcloset": 2692, "owed": 2693, "Ġpotato": 2694, "Ġpeaceful": 2695, "Ġpump": 2696, "Ġmask": 2697, "Ġknocked": 2698, "cream": 2699, "airs": 2700, "Ġwhale": 2701, "Ġsword": 2702, "Ġmysterious": 2703, "Ġfamous": 2704, "Ġburn": 2705, "upid": 2706, "Tommy": 2707, "Ġhar": 2708, "Ġgener": 2709, "Ġbean": 2710, "ĠAndy": 2711, "we": 2712, "rated": 2713, "Ġyog": 2714, "Ġsold": 2715, "Ġshark": 2716, "Ġanswer": 2717, "Ġ3": 2718, "Ġsco": 2719, "cient": 2720, "bled": 2721, "arl": 2722, "Ġwouldn": 2723, "Ġrug": 2724, "Ġpolite": 2725, "Ġkicked": 2726, "Ġfeed": 2727, "ĠPlease": 2728, "erri": 2729, "com": 2730, "Ġsnacks": 2731, "Ġmeasure": 2732, "Ġjam": 2733, "Ġdisg": 2734, "Ġancient": 2735, "Ġrelie": 2736, "Ġcorner": 2737, "Ġblow": 2738, "ond": 2739, "Ġspace": 2740, "Ġnoisy": 2741, "Ġesc": 2742, "reen": 2743, "ote": 2744, "imp": 2745, "Ġspread": 2746, "Ġscarf": 2747, "Ġbranches": 2748, "ormous": 2749, "Ġstupid": 2750, "Ġpainted": 2751, "Ġchocol": 2752, "ĠDon": 2753, "rob": 2754, "Ġshoe": 2755, "Ġrough": 2756, "Ġmarch": 2757, "Ġeggs": 2758, "Ġwagon": 2759, "Ġpaws": 2760, "uce": 2761, "Ġstudy": 2762, "Ġmoms": 2763, "Ġfrust": 2764, "Ġdisgust": 2765, "Ġdead": 2766, "Ġdug": 2767, "Ġcrown": 2768, "robe": 2769, "Ġterri": 2770, "Ġfoolish": 2771, "Ġbarn": 2772, "ĠSometimes": 2773, "enny": 2774, "Dad": 2775, "Ġsteal": 2776, "Ġsell": 2777, "Ġrare": 2778, "Ġpresent": 2779, "Ġmis": 2780, "Ġenormous": 2781, "getable": 2782, "Ġvegetable": 2783, "Ġunderstood": 2784, "Ġscare": 2785, "Ġsalad": 2786, "Ġmedic": 2787, "Ġdisgusting": 2788, "Ġchocolate": 2789, "Ġbanana": 2790, "Ġbald": 2791, "ighed": 2792, "edient": 2793, "corn": 2794, "ado": 2795, "Ġstuff": 2796, "Ġmedicine": 2797, "Ġhero": 2798, "Ġgenerous": 2799, "Ġclap": 2800, "fic": 2801, "Ġgroup": 2802, "Ġgoose": 2803, "Ġdiffic": 2804, "Ġbitter": 2805, "pes": 2806, "Ġthick": 2807, "Ġroar": 2808, "Ġperform": 2809, "Ġmush": 2810, "Ġfrustrated": 2811, "Ġdifficult": 2812, "Ġbreath": 2813, "ĠSammy": 2814, "ĠInstead": 2815, "Ġtick": 2816, "Ġsmaller": 2817, "Ġshadow": 2818, "Ġmelon": 2819, "Ġmarket": 2820, "Ġcovered": 2821, "ĠPe": 2822, "uitar": 2823, "Ġtasted": 2824, "Ġord": 2825, "Ġobedient": 2826, "Ġguitar": 2827, "roy": 2828, "port": 2829, "orry": 2830, "mb": 2831, "Ġwake": 2832, "alk": 2833, "Ġlab": 2834, "Ġhang": 2835, "Ġhorn": 2836, "Ġdestroy": 2837, "ĠSome": 2838, "inal": 2839, "asses": 2840, "Ġtoug": 2841, "Ġref": 2842, "Ġmountain": 2843, "Ġmot": 2844, "Ġbored": 2845, "Ġasleep": 2846, "aking": 2847, "Timmy": 2848, "Ġwhich": 2849, "Ġtaught": 2850, "Ġstanding": 2851, "usual": 2852, "land": 2853, "Ġrelieved": 2854, "Ġharm": 2855, "Ġbecome": 2856, "ĠBrown": 2857, "Ġtough": 2858, "Ġterrible": 2859, "Ġsuit": 2860, "Ġjoined": 2861, "ungle": 2862, "atter": 2863, "alous": 2864, "Ġsquash": 2865, "Ġpebble": 2866, "Ġmushroom": 2867, "Ġmoving": 2868, "Ġjealous": 2869, "Ġexploring": 2870, "iginal": 2871, "fted": 2872, "als": 2873, "Ġyourself": 2874, "Ġparrot": 2875, "Ġknife": 2876, "Ġjungle": 2877, "Ġadm": 2878, "Together": 2879, "Here": 2880, "Ġunusual": 2881, "Ġtun": 2882, "Ġpumpkin": 2883, "Ġdiscover": 2884, "Ġclear": 2885, "Ġasking": 2886, "Ġspoiled": 2887, "Ġprize": 2888, "Ġdull": 2889, "ulb": 2890, "atch": 2891, "Ġsunf": 2892, "Ġfat": 2893, "Ġchicken": 2894, "Ġtiger": 2895, "Ġpopcorn": 2896, "Ġnuts": 2897, "Ġmighty": 2898, "Ġthoughtful": 2899, "Ġhears": 2900, "Ġfine": 2901, "Ġcomb": 2902, "Ġbulb": 2903, "ume": 2904, "mp": 2905, "ident": 2906, "Ġvase": 2907, "Ġtwist": 2908, "Ġtool": 2909, "Ġstri": 2910, "Ġseeds": 2911, "Ġsque": 2912, "Ġhay": 2913, "ĠPoppy": 2914, "rag": 2915, "erce": 2916, "Ġoriginal": 2917, "Ġfierce": 2918, "Ġdrop": 2919, "Ġind": 2920, "Ġsnee": 2921, "Ġending": 2922, "Ġdrawing": 2923, "Ġcop": 2924, "ĠWill": 2925, "Ġthankful": 2926, "Ġisland": 2927, "Ġcarrots": 2928, "umsy": 2929, "Inside": 2930, "Ġspent": 2931, "Ġrelax": 2932, "Ġmuff": 2933, "Ġembarrassed": 2934, "Ġcheap": 2935, "Ġcro": 2936, "selves": 2937, "Ġtroubled": 2938, "Ġmic": 2939, "Ġknowing": 2940, "Ġfold": 2941, "Ġeng": 2942, "Ġclown": 2943, "Ġbloom": 2944, "Ġaunt": 2945, "oto": 2946, "comfortable": 2947, "Are": 2948, "Ġtemp": 2949, "Ġsunflower": 2950, "Ġrecord": 2951, "Ġfrown": 2952, "Ġfinding": 2953, "Ġbalance": 2954, "ĠTr": 2955, "Ġuncomfortable": 2956, "Ġlose": 2957, "Ġhats": 2958, "Ġchest": 2959, "ĠMany": 2960, "Ġ'": 2961, "ser": 2962, "irsty": 2963, "cean": 2964, "Ġshoot": 2965, "Ġocean": 2966, "Ġguess": 2967, "Ġexciting": 2968, "Ġcone": 2969, "Ġadventur": 2970, "Ġadd": 2971, "ĠSunny": 2972, "ĠAl": 2973, "xible": 2974, "iness": 2975, "ilt": 2976, "Ġstamp": 2977, "Ġlifted": 2978, "Ġacorn": 2979, "yal": 2980, "opard": 2981, "dle": 2982, "Ġtrick": 2983, "Ġseal": 2984, "Ġscatter": 2985, "Ġclumsy": 2986, "ĠJenny": 2987, "angle": 2988, "ages": 2989, "Sorry": 2990, "Ġwrote": 2991, "Ġpasta": 2992, "Ġhairy": 2993, "Ġcush": 2994, "Ġadventurous": 2995, "lace": 2996, "Where": 2997, "Ġunl": 2998, "Ġpicks": 2999, "Ġnecklace": 3000, "Ġloyal": 3001, "Ġcrazy": 3002, "Ġcats": 3003, "Ġbody": 3004, "Ġarrow": 3005, "ti": 3006, "erries": 3007, "Ġtells": 3008, "Ġstubb": 3009, "Ġhose": 3010, "Ġharmless": 3011, "Ġexam": 3012, "Ġdepend": 3013, "Ġcomfortable": 3014, "Ġcost": 3015, "Ġbrace": 3016, "Ġberries": 3017, "xious": 3018, "urkey": 3019, "iant": 3020, "amond": 3021, "apped": 3022, "Ġsearched": 3023, "Ġdeliver": 3024, "Ġbehave": 3025, "tti": 3026, "hetti": 3027, "aghetti": 3028, "Ġorganized": 3029, "Ġengine": 3030, "Ġdiamond": 3031, "Ġanxious": 3032, "gu": 3033, "ependent": 3034, "Molly": 3035, "Ġstubborn": 3036, "Ġremind": 3037, "Ġmov": 3038, "Ġfis": 3039, "Ġcrayon": 3040, "Ġcollect": 3041, "light": 3042, "Ġthirsty": 3043, "Ġturkey": 3044, "Ġswe": 3045, "Ġstretch": 3046, "Ġscr": 3047, "Ġpracticed": 3048, "Ġplayful": 3049, "ĠEmily": 3050, "host": 3051, "anged": 3052, "Ġword": 3053, "Ġtied": 3054, "Ġpir": 3055, "Ġmailbox": 3056, "Ġjug": 3057, "Ġgloomy": 3058, "Ġfrag": 3059, "Ġenvel": 3060, "Ġenv": 3061, "Ġbubbles": 3062, "lph": 3063, "illa": 3064, "dile": 3065, "codile": 3066, "ants": 3067, "Ġyours": 3068, "Ġspaghetti": 3069, "Ġrep": 3070, "Ġraced": 3071, "Ġprun": 3072, "Ġpolice": 3073, "Ġindependent": 3074, "Ġflexible": 3075, "Ġcrawl": 3076, "Ġbathroom": 3077, "Ġbarber": 3078, "How": 3079, "Ġsil": 3080, "Ġpro": 3081, "Ġescape": 3082, "Ġdeer": 3083, "Ġcrack": 3084, "ĠEven": 3085, "Ġpige": 3086, "Ġpassed": 3087, "Ġmotor": 3088, "Ġliz": 3089, "Ġghost": 3090, "Ġfragile": 3091, "ĠU": 3092, "aff": 3093, "Ġneeds": 3094, "Ġjolly": 3095, "Ġdependable": 3096, "Ġdeaf": 3097, "Ġcelebrate": 3098, "shine": 3099, "io": 3100, "Ġwheat": 3101, "Ġstove": 3102, "Ġroof": 3103, "Ġrat": 3104, "Ġfig": 3105, "Ġdove": 3106, "Ġdolph": 3107, "Ġchess": 3108, "Ġbees": 3109, "ĠWhile": 3110, "cident": 3111, "Ġstat": 3112, "Ġraven": 3113, "Ġleopard": 3114, "Ġflash": 3115, "Ġcrocodile": 3116, "Ġbrill": 3117, "Ġattic": 3118, "nic": 3119, "Ġyarn": 3120, "Ġsung": 3121, "Ġshows": 3122, "Ġpainting": 3123, "Ġpress": 3124, "Ġmap": 3125, "Ġlog": 3126, "Ġexplained": 3127, "Ġchanged": 3128, "Ġbrilliant": 3129, "Ġboys": 3130, "ground": 3131, "Their": 3132, "If": 3133, "Ġweal": 3134, "Ġthu": 3135, "Ġpicnic": 3136, "Ġhumble": 3137, "Ġcolour": 3138, "Ġzip": 3139, "Ġtricks": 3140, "Ġshiver": 3141, "Ġmill": 3142, "Ġcrawled": 3143, "Ġboard": 3144, "Ġer": 3145, "nel": 3146, "hip": 3147, "Ġusing": 3148, "Ġtemple": 3149, "Ġignorant": 3150, "Ġenvelope": 3151, "Ġchoose": 3152, "weet": 3153, "lasses": 3154, "iv": 3155, "Me": 3156, "Mama": 3157, "Ġsunglasses": 3158, "Ġsend": 3159, "Ġruined": 3160, "Ġhoop": 3161, "Ġfriendship": 3162, "Ġframe": 3163, "Ġcheerful": 3164, "Ġballoons": 3165, "Ġavoc": 3166, "net": 3167, "met": 3168, "inary": 3169, "Ġraft": 3170, "Ġpopular": 3171, "Ġpepper": 3172, "Ġknee": 3173, "Ġfolder": 3174, "Ġcounted": 3175, "Ġbuilt": 3176, "Ġbottom": 3177, "Ġbatter": 3178, "Ġaccident": 3179, "most": 3180, "iddle": 3181, "Ġwaves": 3182, "Ġstones": 3183, "Ġspotted": 3184, "Ġrose": 3185, "Ġpants": 3186, "Ġhelmet": 3187, "Ġdelicate": 3188, "Ġcompet": 3189, "work": 3190, "ulu": 3191, "igator": 3192, "Every": 3193, "Ġtriangle": 3194, "Ġtoast": 3195, "Ġsunshine": 3196, "Ġspill": 3197, "Ġscreen": 3198, "Ġkissed": 3199, "Ġjack": 3200, "Ġenvious": 3201, "umpet": 3202, "fee": 3203, "ffee": 3204, "erable": 3205, "Ġtrumpet": 3206, "Ġstage": 3207, "Ġsighed": 3208, "Ġmiserable": 3209, "Ġmiddle": 3210, "Ġlouder": 3211, "Ġlizard": 3212, "Ġcleaning": 3213, "Ġcareless": 3214, "ĠYour": 3215, "ying": 3216, "ither": 3217, "Jane": 3218, "Ġwander": 3219, "Ġvegetables": 3220, "Ġtunnel": 3221, "Ġstatue": 3222, "Ġserious": 3223, "Ġscale": 3224, "Ġpigeon": 3225, "Ġpow": 3226, "Ġimpressive": 3227, "Ġharsh": 3228, "Ġfinger": 3229, "Ġalmost": 3230, "ĠNo": 3231, "seum": 3232, "iable": 3233, "Ġsailed": 3234, "Ġmaze": 3235, "Ġhopping": 3236, "Ġbracelet": 3237, "Ġborrow": 3238, "Ġbelt": 3239, "Ġalligator": 3240, "ĠSh": 3241, "Ġslipped": 3242, "Ġnosy": 3243, "Ġnapkin": 3244, "Ġmuseum": 3245, "Ġmeant": 3246, "Ġguard": 3247, "Ġfigure": 3248, "Ġearth": 3249, "There": 3250, "Ġwashed": 3251, "Ġtaken": 3252, "Ġsaus": 3253, "Ġpost": 3254, "Ġpenny": 3255, "Ġcompl": 3256, "Ġbin": 3257, "Ġattract": 3258, "Mum": 3259, "Ġreliable": 3260, "Ġrh": 3261, "Ġneighbor": 3262, "Ġmovie": 3263, "Ġjellyfish": 3264, "Ġjacket": 3265, "Ġhurts": 3266, "Ġhappiness": 3267, "Ġgar": 3268, "Ġcoffee": 3269, "Ġcries": 3270, "Ġcoo": 3271, "ctop": 3272, "berries": 3273, "Ġordinary": 3274, "Ġknight": 3275, "Ġgor": 3276, "Ġfilthy": 3277, "Ġattractive": 3278, "aser": 3279, "Ġwealthy": 3280, "Ġshore": 3281, "Ġradio": 3282, "Ġones": 3283, "Ġgem": 3284, "Ġcushion": 3285, "Ġcam": 3286, "utom": 3287, "utomob": 3288, "utomobile": 3289, "ipper": 3290, "Ġwalks": 3291, "Ġpeach": 3292, "Ġmuffin": 3293, "Ġmagnet": 3294, "Ġforward": 3295, "Ġcab": 3296, "Ġboxes": 3297, "Ġbelonged": 3298, "live": 3299, "Ġtag": 3300, "Ġshells": 3301, "Ġshade": 3302, "Ġpoured": 3303, "Ġnod": 3304, "Ġlocked": 3305, "Ġgorilla": 3306, "Ġcamera": 3307, "zzy": 3308, "pack": 3309, "llip": 3310, "llipop": 3311, "Ġwhispered": 3312, "Ġregular": 3313, "Ġpersist": 3314, "Ġlollipop": 3315, "Ġfluffy": 3316, "Ġdolphin": 3317, "Ġcabin": 3318, "Ġboats": 3319, "Ġanswered": 3320, "Ġautomobile": 3321, "ony": 3322, "ext": 3323, "appy": 3324, "Ġtimes": 3325, "Ġnods": 3326, "Ġgiving": 3327, "Ġdrawer": 3328, "Ġdesk": 3329, "dom": 3330, "Ġsmoke": 3331, "Ġsailor": 3332, "Ġmule": 3333, "Ġload": 3334, "Ġfour": 3335, "Ġcreate": 3336, "Ġcompetit": 3337, "ĠMiss": 3338, "uth": 3339, "omes": 3340, "ctopus": 3341, "coa": 3342, "cles": 3343, "Ġtravel": 3344, "Ġsaying": 3345, "Ġlotion": 3346, "Ġjudge": 3347, "Ġgum": 3348, "Ġchu": 3349, "inky": 3350, "ete": 3351, "Ġwitch": 3352, "Ġtwig": 3353, "Ġstronger": 3354, "Ġsniff": 3355, "Ġshrimp": 3356, "Ġdelight": 3357, "Ġcupboard": 3358, "Ġchubby": 3359, "Ġang": 3360, "ĠToday": 3361, "ĠJake": 3362, "und": 3363, "ict": 3364, "ging": 3365, "Go": 3366, "Ġwool": 3367, "Ġsuccessful": 3368, "Ġreturned": 3369, "Ġlibr": 3370, "Ġinvited": 3371, "Ġhouses": 3372, "Ġgarage": 3373, "Ġbubble": 3374, "urb": 3375, "essie": 3376, "Ġsupport": 3377, "Ġshowing": 3378, "Ġnicely": 3379, "Ġneedle": 3380, "Ġmole": 3381, "Ġlively": 3382, "Ġlean": 3383, "Ġhelpless": 3384, "mbre": 3385, "Who": 3386, "Ġyet": 3387, "Ġumbre": 3388, "Ġpersistent": 3389, "Ġmoder": 3390, "Ġhelps": 3391, "Ġgrown": 3392, "Ġfearful": 3393, "Ġdough": 3394, "Ġalert": 3395, "ief": 3396, "anut": 3397, "Ġtrunk": 3398, "Ġsquee": 3399, "Ġsolve": 3400, "Ġshine": 3401, "Ġscoot": 3402, "Ġradish": 3403, "Ġgets": 3404, "Ġfridge": 3405, "Ġdreams": 3406, "Ġdisturb": 3407, "Ġclub": 3408, "anger": 3409, "Ġvalue": 3410, "Ġsleeping": 3411, "Ġoctopus": 3412, "Ġmodern": 3413, "Ġlicked": 3414, "Ġlow": 3415, "Ġdecide": 3416, "Ġcooked": 3417, "Ġbedroom": 3418, "ĠLulu": 3419, "oin": 3420, "Ġrepe": 3421, "Ġloudly": 3422, "Ġcreature": 3423, "Ġcere": 3424, "Ġcarp": 3425, "Ġbounced": 3426, "otter": 3427, "Ġwishes": 3428, "Ġways": 3429, "Ġuncle": 3430, "Ġtire": 3431, "Ġtank": 3432, "Ġspeed": 3433, "Ġspeak": 3434, "Ġsort": 3435, "Ġsle": 3436, "Ġquar": 3437, "Ġhive": 3438, "Ġdive": 3439, "Ġcity": 3440, "Ġbase": 3441, "Ġacce": 3442, "ĠSn": 3443, "Ġotter": 3444, "ense": 3445, "azz": 3446, "Ġumbrella": 3447, "Ġtruth": 3448, "Ġthunder": 3449, "Ġsplit": 3450, "Ġlearning": 3451, "Ġharder": 3452, "Ġhipp": 3453, "Ġgym": 3454, "Ġeraser": 3455, "Ġcandle": 3456, "orable": 3457, "Sarah": 3458, "Ġstation": 3459, "Ġspend": 3460, "Ġrepair": 3461, "Ġlit": 3462, "xy": 3463, "ric": 3464, "ilty": 3465, "cut": 3466, "Ġorder": 3467, "Ġmop": 3468, "Ġmild": 3469, "Ġguilty": 3470, "Ġfather": 3471, "Ġcherries": 3472, "Ġchalk": 3473, "Ġcereal": 3474, "ye": 3475, "ulif": 3476, "iron": 3477, "Billy": 3478, "Ġwheels": 3479, "Ġweek": 3480, "Ġvine": 3481, "Ġthief": 3482, "Ġquarrel": 3483, "Ġpointing": 3484, "Ġjewelry": 3485, "Ġjet": 3486, "Ġflashlight": 3487, "Ġcocoa": 3488, "Ġbiggest": 3489, "tern": 3490, "atient": 3491, "Ġsoar": 3492, "Ġsink": 3493, "Ġknot": 3494, "Ġimpatient": 3495, "Ġhomes": 3496, "Ġgrace": 3497, "Ġfountain": 3498, "Ġcaulif": 3499, "Ġcact": 3500, "Ġadorable": 3501, "ĠTrue": 3502, "ĠRob": 3503, "Ġed": 3504, "gen": 3505, "asing": 3506, "Ġpowder": 3507, "Ġlibrary": 3508, "Ġhappening": 3509, "Ġcarpet": 3510, "Ġcactus": 3511, "Ġsweater": 3512, "Ġstream": 3513, "Ġskipped": 3514, "Ġpengu": 3515, "Ġoffice": 3516, "Ġherb": 3517, "Ġforth": 3518, "Ġcase": 3519, "ten": 3520, "keep": 3521, "irit": 3522, "arming": 3523, "Bobo": 3524, "Ġstaff": 3525, "Ġshield": 3526, "Ġlying": 3527, "Ġhalf": 3528, "Ġgrandpa": 3529, "Ġfork": 3530, "Ġflute": 3531, "Ġfisher": 3532, "ĠDolly": 3533, "rage": 3534, "rn": 3535, "ory": 3536, "oby": 3537, "ject": 3538, "isted": 3539, "Ġwhenever": 3540, "Ġhippo": 3541, "Ġhandle": 3542, "Ġgrapes": 3543, "Ġcharming": 3544, "esday": 3545, "assion": 3546, "Ġvalu": 3547, "Ġtripped": 3548, "Ġskin": 3549, "Ġfeathers": 3550, "Ġcounting": 3551, "Ġcauliflower": 3552, "Ġangel": 3553, "zed": 3554, "ped": 3555, "levator": 3556, "acht": 3557, "Ġticket": 3558, "Ġthinking": 3559, "Ġthemselves": 3560, "Ġtap": 3561, "Ġstrawberry": 3562, "Ġslept": 3563, "Ġmarry": 3564, "Ġled": 3565, "Ġknows": 3566, "Ġhunt": 3567, "Ġelevator": 3568, "Ġdesign": 3569, "Ġavocado": 3570, "ĠPeter": 3571, "was": 3572, "washer": 3573, "lephone": 3574, "edy": 3575, "Ġyacht": 3576, "Ġwrapped": 3577, "Ġtelephone": 3578, "Ġspun": 3579, "Ġgifted": 3580, "Ġeventually": 3581, "Ġdishwasher": 3582, "Ġcomplain": 3583, "Ġcompetitive": 3584, "ellig": 3585, "Ġskip": 3586, "Ġshrink": 3587, "Ġintellig": 3588, "Ġexcite": 3589, "Ġiron": 3590, "Mummy": 3591, "Ġtray": 3592, "Ġtowers": 3593, "Ġsauce": 3594, "Ġquit": 3595, "Ġphoto": 3596, "Ġhaircut": 3597, "Ġgathered": 3598, "Ġflea": 3599, "Ġdisappoin": 3600, "Ġcompassion": 3601, "rill": 3602, "ates": 3603, "Ġwire": 3604, "Ġpole": 3605, "Ġpoem": 3606, "Ġpirate": 3607, "Ġnurse": 3608, "Ġgiggled": 3609, "Ġdecorate": 3610, "Ġdeter": 3611, "Ġanch": 3612, "ĠTweet": 3613, "ĠRose": 3614, "ulance": 3615, "opl": 3616, "eropl": 3617, "elery": 3618, "bulance": 3619, "Jim": 3620, "Ġwaff": 3621, "Ġvaluable": 3622, "Ġtorn": 3623, "Ġtoe": 3624, "Ġshape": 3625, "Ġrestless": 3626, "Ġquestion": 3627, "Ġham": 3628, "Ġears": 3629, "Ġcricket": 3630, "Ġanchor": 3631, "Ġambulance": 3632, "Ġaeropl": 3633, "Fluffy": 3634, "Ġyaw": 3635, "Ġvide": 3636, "Ġslides": 3637, "Ġnumb": 3638, "Ġhotel": 3639, "Ġdeterm": 3640, "Ġbuttons": 3641, "Ġbarrel": 3642, "ision": 3643, "ats": 3644, "aged": 3645, "ache": 3646, "Give": 3647, "Ġstranger": 3648, "Ġsett": 3649, "Ġedge": 3650, "body": 3651, "ating": 3652, "Ġzipper": 3653, "Ġwife": 3654, "Ġunlock": 3655, "Ġtrail": 3656, "Ġtears": 3657, "Ġshut": 3658, "Ġsight": 3659, "Ġpattern": 3660, "Ġnumbers": 3661, "Ġmeal": 3662, "Ġcelery": 3663, "Ġbull": 3664, "old": 3665, "Ġweigh": 3666, "Ġtrap": 3667, "Ġspinning": 3668, "Ġsalt": 3669, "Ġribb": 3670, "Ġpit": 3671, "Ġmeans": 3672, "Ġlaughs": 3673, "Ġintelligent": 3674, "Ġfisherman": 3675, "Ġdisappointed": 3676, "Ġcompassionate": 3677, "Ġbushes": 3678, "ĠJimmy": 3679, "ĠBoun": 3680, "del": 3681, "?\".": 3682, "Ġple": 3683, "Ġmodel": 3684, "Ġcomput": 3685, "Ġcardboard": 3686, "Ġbananas": 3687, "spit": 3688, "spital": 3689, "keeper": 3690, "iew": 3691, "head": 3692, "Ġwalls": 3693, "Ġview": 3694, "Ġsurf": 3695, "Ġsoldier": 3696, "Ġpear": 3697, "Ġnewsp": 3698, "Ġmug": 3699, "Ġjuicy": 3700, "Ġink": 3701, "Ġhospital": 3702, "Ġeither": 3703, "ĠToby": 3704, "ĠPete": 3705, "ĠKim": 3706, "quit": 3707, "quito": 3708, "ophie": 3709, "dest": 3710, "Ġshort": 3711, "Ġrid": 3712, "Ġoil": 3713, "Ġmitten": 3714, "Ġcurt": 3715, "Ġbirdc": 3716, "Ġadded": 3717, "nam": 3718, "ention": 3719, "Mr": 3720, "'d": 3721, "Ġsucce": 3722, "Ġspear": 3723, "Ġsilver": 3724, "Ġsafely": 3725, "Ġprep": 3726, "Ġpee": 3727, "Ġpap": 3728, "Ġpal": 3729, "Ġnail": 3730, "Ġdistant": 3731, "Ġcurtain": 3732, "Ġbirdcage": 3733, "ĠPeople": 3734, "ushed": 3735, "squito": 3736, "!\".": 3737, "Ġspilled": 3738, "Ġmosquito": 3739, "Ġenc": 3740, "Ġcrib": 3741, "utes": 3742, "uring": 3743, "uper": 3744, "ron": 3745, "fa": 3746, "aving": 3747, "Ġyogurt": 3748, "Ġwiped": 3749, "Ġtummy": 3750, "Ġtask": 3751, "Ġrode": 3752, "Ġquestions": 3753, "Ġplayground": 3754, "Ġpainter": 3755, "Ġpale": 3756, "Ġpurse": 3757, "Ġlights": 3758, "Ġlabel": 3759, "Ġdreamed": 3760, "Ġcostume": 3761, "Ġcoins": 3762, "Ġcob": 3763, "Ġbikes": 3764, "Ġbump": 3765, "ĠBuzz": 3766, "par": 3767, "Ġsucceed": 3768, "Ġspirit": 3769, "Ġshocked": 3770, "Ġrubber": 3771, "Ġpretending": 3772, "Ġmotorcy": 3773, "Ġminutes": 3774, "Ġgraceful": 3775, "Ġglove": 3776, "Ġaeroplane": 3777, "ĠOK": 3778, "urch": 3779, "opter": 3780, "ocer": 3781, "inocer": 3782, "icopter": 3783, "ately": 3784, "ait": 3785, ",âĢĿ": 3786, "Ġstack": 3787, "Ġsausage": 3788, "Ġprov": 3789, "Ġpalace": 3790, "Ġpor": 3791, "Ġitself": 3792, "Ġhelicopter": 3793, "Ġfalls": 3794, "Ġdust": 3795, "Ġcomputer": 3796, "Ġcollar": 3797, "Ġcoal": 3798, "Ġchain": 3799, "ĠLittle": 3800, "uel": 3801, "stal": 3802, "riger": 3803, "rigerator": 3804, "nament": 3805, "inoceros": 3806, "Ġscooter": 3807, "Ġpun": 3808, "Ġornament": 3809, "Ġknob": 3810, "Ġkindness": 3811, "Ġcrystal": 3812, "ucet": 3813, "Ġsteps": 3814, "Ġrod": 3815, "Ġparade": 3816, "Ġpacked": 3817, "Ġoak": 3818, "Ġmelt": 3819, "Ġlime": 3820, "Ġgolf": 3821, "Ġgear": 3822, "Ġfaucet": 3823, "Ġax": 3824, "ĠTeddy": 3825, "umbled": 3826, "Ġvend": 3827, "Ġthose": 3828, "Ġrefrigerator": 3829, "Ġnewspaper": 3830, "Ġmodest": 3831, "Ġlie": 3832, "Ġleash": 3833, "Ġhour": 3834, "Ġeye": 3835, "Ġbaseball": 3836, "ĠEverywhere": 3837, "ugged": 3838, "rework": 3839, "levision": 3840, "ilot": 3841, "cing": 3842, "Is": 3843, "Ġsepar": 3844, "Ġsuper": 3845, "Ġrhinoceros": 3846, "Ġpicking": 3847, "Ġmatt": 3848, "Ġmakeup": 3849, "Ġlic": 3850, "Ġhate": 3851, "Ġfirework": 3852, "Ġfog": 3853, "Ġdriving": 3854, "Ġdisappeared": 3855, "Ġcomplet": 3856, "Ġcable": 3857, "Ġbrothers": 3858, "Ġavail": 3859, "ĠBill": 3860, "stri": 3861, "ampoo": 3862, "Ġvideo": 3863, "Ġtelevision": 3864, "Ġswinging": 3865, "Ġsofa": 3866, "Ġserve": 3867, "Ġresc": 3868, "Ġpine": 3869, "Ġonion": 3870, "Ġoften": 3871, "Ġnovel": 3872, "Ġlicense": 3873, "Ġinse": 3874, "ĠSpike": 3875, "ĠGive": 3876, "time": 3877, "roph": 3878, "aked": 3879, "Well": 3880, "Ġspell": 3881, "Ġrubbed": 3882, "Ġpolish": 3883, "Ġmedal": 3884, "Ġmanaged": 3885, "Ġmath": 3886, "Ġhall": 3887, "Ġhook": 3888, "Ġdetermined": 3889, "Ġcups": 3890, "Ġchurch": 3891, "Ġaxe": 3892, "Ġavailable": 3893, "ĠCl": 3894, "ĠBirdy": 3895, "web": 3896, "rophone": 3897, "Ġtaller": 3898, "Ġsparkly": 3899, "Ġscrew": 3900, "Ġporch": 3901, "Ġmissile": 3902, "Ġmeadow": 3903, "Ġdrawings": 3904, "Ġdisappear": 3905, "Ġcooler": 3906, "Ġcobweb": 3907, "Ġbags": 3908, "Ġalarm": 3909, "ĠMum": 3910, "ĠFo": 3911, "ĠBet": 3912, "stairs": 3913, "htub": 3914, "drobe": 3915, "ckey": 3916, "arry": 3917, "Ġwardrobe": 3918, "Ġvendor": 3919, "Ġstared": 3920, "Ġpenguin": 3921, "Ġmetal": 3922, "Ġhockey": 3923, "Ġgrowl": 3924, "Ġdiary": 3925, "Ġclimbing": 3926, "Ġbookshe": 3927, "Ġbathtub": 3928, "Ġbasketball": 3929, "Ġbandage": 3930, "Ġig": 3931, "usia": 3932, "ready": 3933, "loo": 3934, "husia": 3935, "erc": 3936, "Bye": 3937, "Ġveil": 3938, "Ġthread": 3939, "Ġrolling": 3940, "Ġrice": 3941, "Ġostri": 3942, "Ġminer": 3943, "Ġmeat": 3944, "Ġmay": 3945, "Ġigloo": 3946, "Ġhurry": 3947, "Ġgasped": 3948, "Ġenthusia": 3949, "Ġcherry": 3950, "Ġbookshelf": 3951, "Ġbattery": 3952, "Ġalready": 3953, "ĠJohnny": 3954, "omed": 3955, "Wait": 3956, "Re": 3957, "Ġswung": 3958, "Ġstud": 3959, "Ġstretched": 3960, "Ġroot": 3961, "Ġrise": 3962, "Ġpapers": 3963, "Ġorganize": 3964, "Ġmagaz": 3965, "Ġknock": 3966, "Ġitch": 3967, "Ġinsect": 3968, "Ġhunter": 3969, "Ġgrape": 3970, "Ġexplain": 3971, "Ġcomet": 3972, "ĠSnow": 3973, "ĠPipp": 3974, "verse": 3975, "istol": 3976, "affe": 3977, "See": 3978, "Al": 3979, "Ġobject": 3980, "Ġok": 3981, "Ġnotice": 3982, "Ġmotorcycle": 3983, "Ġmicrophone": 3984, "Ġmattress": 3985, "Ġmummy": 3986, "Ġlumber": 3987, "Ġbicy": 3988, "ricane": 3989, "nger": 3990, "Ġsnap": 3991, "Ġrealised": 3992, "Ġreward": 3993, "Ġpistol": 3994, "Ġpilot": 3995, "Ġmustache": 3996, "Ġimpro": 3997, "Ġflame": 3998, "Ġexerc": 3999, "Ġencou": 4000, "Ġdreaming": 4001, "Ġdess": 4002, "Ġcooking": 4003, "Ġarg": 4004, "ometer": 4005, "lcan": 4006, "asp": 4007, "aul": 4008, "Gra": 4009, "Ġwinter": 4010, "Ġwallet": 4011, "Ġvolcan": 4012, "Ġunpack": 4013, "Ġtroph": 4014, "Ġsuggest": 4015, "Ġsheet": 4016, "Ġjokes": 4017, "Ġflour": 4018, "Ġfought": 4019, "Ġblackboard": 4020, "ĠZoomy": 4021, "rmometer": 4022, "lter": 4023, "ipe": 4024, "iano": 4025, "aches": 4026, "Ġpeanut": 4027, "Ġpastry": 4028, "Ġnetwork": 4029, "Ġfalling": 4030, "Ġbuckle": 4031, "Ġblin": 4032, "Ġbicycle": 4033, "ĠLee": 4034, "aid": 4035, "Ouch": 4036, "Ġvolcano": 4037, "Ġvi": 4038, "Ġtrucks": 4039, "Ġtrophy": 4040, "Ġsunset": 4041, "Ġshampoo": 4042, "Ġrake": 4043, "Ġcalling": 4044, "Ġcamp": 4045, "Ġbent": 4046, "aky": 4047, "Ġweep": 4048, "Ġstom": 4049, "Ġpressed": 4050, "Ġpractice": 4051, "Ġpiano": 4052, "Ġostrich": 4053, "Ġneat": 4054, "Ġdrain": 4055, "Ġbeef": 4056, "Ġattach": 4057, "ĠPandy": 4058, "ured": 4059, "lies": 4060, "aspoon": 4061, "angu": 4062, "Ġtrains": 4063, "Ġteaspoon": 4064, "Ġsweetie": 4065, "Ġstable": 4066, "Ġshelter": 4067, "Ġpoke": 4068, "Ġpackage": 4069, "Ġmem": 4070, "Ġhuman": 4071, "Ġhours": 4072, "Ġhanging": 4073, "Ġhammer": 4074, "Ġbury": 4075, "Ġapron": 4076, "ummer": 4077, "bol": 4078, "aroo": 4079, "angaroo": 4080, "Ġtrack": 4081, "Ġsquirrels": 4082, "Ġsne": 4083, "Ġsym": 4084, "Ġrag": 4085, "Ġpatch": 4086, "Ġoffered": 4087, "Ġmessage": 4088, "Ġmarched": 4089, "Ġkangaroo": 4090, "Ġins": 4091, "Ġhut": 4092, "Ġenjoying": 4093, "Ġdiscovered": 4094, "Ġcrane": 4095, "Ġblouse": 4096, "Ġagainst": 4097, "Ġow": 4098, "zag": 4099, "ube": 4100, "play": 4101, "igzag": 4102, "ctory": 4103, "Ġur": 4104, "Ġtube": 4105, "Ġsymbol": 4106, "Ġskull": 4107, "Ġskirt": 4108, "Ġprunes": 4109, "Ġpassport": 4110, "Ġmagazine": 4111, "Ġlend": 4112, "Ġlangu": 4113, "Ġfactory": 4114, "Ġearly": 4115, "Ġdisplay": 4116, "ĠJo": 4117, "ature": 4118, "Ġstairs": 4119, "Ġshovel": 4120, "Ġprevent": 4121, "Ġpeeked": 4122, "Ġnation": 4123, "Ġholds": 4124, "Ġfrogs": 4125, "Ġfingers": 4126, "Ġfuel": 4127, "Ġexcitement": 4128, "ĠFro": 4129, "stic": 4130, "Little": 4131, "Ġuniver": 4132, "Ġten": 4133, "Ġson": 4134, "Ġrot": 4135, "Ġperm": 4136, "Ġonce": 4137, "Ġlip": 4138, "Ġjournal": 4139, "Ġenthusiastic": 4140, "Ġdessert": 4141, "Ġcheck": 4142, "Ġcastles": 4143, "Ġcell": 4144, "Ġbathe": 4145, "Ġaccidentally": 4146, "ĠZip": 4147, "ĠLook": 4148, "ĠBessie": 4149, "leton": 4150, "keleton": 4151, "Ġyoga": 4152, "Ġtheater": 4153, "Ġpopped": 4154, "Ġopens": 4155, "Ġoy": 4156, "Ġkne": 4157, "Ġjunk": 4158, "Ġhappier": 4159, "Ġfreez": 4160, "Ġfootball": 4161, "Ġcube": 4162, "ĠDan": 4163, "ium": 4164, "ience": 4165, "ffic": 4166, "Ġzoomed": 4167, "Ġthermometer": 4168, "Ġtelling": 4169, "Ġshaking": 4170, "Ġskeleton": 4171, "Ġreading": 4172, "Ġpipe": 4173, "Ġmatches": 4174, "Ġloop": 4175, "Ġhedge": 4176, "Ġgrowing": 4177, "Ġfive": 4178, "Ġcord": 4179, "Ġbathrobe": 4180, "Ġallowed": 4181, "ĠHere": 4182, "ĠBuzzy": 4183, "xygen": 4184, "ination": 4185, "come": 4186, "azor": 4187, "Ġslipp": 4188, "Ġrestore": 4189, "Ġfastest": 4190, "Ġdistance": 4191, "Ġdisag": 4192, "ĠâĢ": 4193, "ney": 4194, "ionary": 4195, "ines": 4196, "ictionary": 4197, "Ġstumbled": 4198, "Ġpinch": 4199, "Ġlistening": 4200, "Ġhanger": 4201, "hero": 4202, "case": 4203, "Ġviol": 4204, "Ġsuperhero": 4205, "Ġstirred": 4206, "Ġribbon": 4207, "Ġplanet": 4208, "Ġpeek": 4209, "Ġgoal": 4210, "Ġfilm": 4211, "Ġdictionary": 4212, "Ġadmire": 4213, "Ġahead": 4214, "fast": 4215, "Sh": 4216, "Joe": 4217, "Ġviolin": 4218, "Ġtrash": 4219, "Ġtoile": 4220, "Ġsurprises": 4221, "Ġstickers": 4222, "Ġreverse": 4223, "Ġhelper": 4224, "Ġgaz": 4225, "Ġcomplete": 4226, "Ġchose": 4227, "Ġbrick": 4228, "Ġalive": 4229, "ĠTina": 4230, "ĠMummy": 4231, "astic": 4232, "arian": 4233, "Ġstrugg": 4234, "Ġstops": 4235, "Ġsub": 4236, "Ġpoppy": 4237, "Ġpony": 4238, "Ġjumps": 4239, "Ġchasing": 4240, "undry": 4241, "place": 4242, "iest": 4243, "cu": 4244, "apon": 4245, "Jill": 4246, "Ġrespectful": 4247, "Ġrail": 4248, "Ġmineral": 4249, "Ġlaundry": 4250, "Ġfreezer": 4251, "Ġdoesn": 4252, "Ġcircles": 4253, "Ġcudd": 4254, "Ġbreakfast": 4255, "Ġblinked": 4256, "Ġbill": 4257, "Ġaccept": 4258, "ĠEllie": 4259, "stiv": 4260, "stival": 4261, "render": 4262, "lid": 4263, "chan": 4264, "Ġvest": 4265, "Ġtoilet": 4266, "Ġtooth": 4267, "Ġswitch": 4268, "Ġstrip": 4269, "Ġsummer": 4270, "Ġrefused": 4271, "Ġplayer": 4272, "Ġleaving": 4273, "Ġlaser": 4274, "Ġhurricane": 4275, "Ġgrill": 4276, "Ġfestival": 4277, "Ġexercise": 4278, "Ġbeet": 4279, "liday": 4280, "adium": 4281, "Ġwaffle": 4282, "Ġstadium": 4283, "Ġlions": 4284, "Ġleak": 4285, "Ġlanguage": 4286, "Ġholiday": 4287, "Ġfireplace": 4288, "Ġdoors": 4289, "Ġcabinet": 4290, "ĠMrs": 4291, "htray": 4292, "Did": 4293, "Ġtwir": 4294, "Ġspoke": 4295, "Ġsniffed": 4296, "Ġsneeze": 4297, "Ġsearching": 4298, "Ġrules": 4299, "Ġpleased": 4300, "Ġmonkeys": 4301, "Ġmint": 4302, "Ġmeowed": 4303, "Ġmen": 4304, "Ġberry": 4305, "Ġairport": 4306, "ĠZoom": 4307, "ĠElly": 4308, "wards": 4309, "med": 4310, "iches": 4311, "Ow": 4312, "Em": 4313, "Ġtraffic": 4314, "Ġtightly": 4315, "Ġtip": 4316, "Ġslap": 4317, "Ġsandwiches": 4318, "Ġroared": 4319, "Ġrazor": 4320, "Ġoats": 4321, "Ġlemons": 4322, "Ġlawn": 4323, "Ġforgave": 4324, "Ġfavour": 4325, "Ġcomfort": 4326, "ĠBetty": 4327, "ki": 4328, "ince": 4329, "imney": 4330, "iggly": 4331, "chanic": 4332, "Ġwindows": 4333, "Ġstomach": 4334, "Ġsticker": 4335, "Ġslip": 4336, "Ġseparate": 4337, "Ġsent": 4338, "Ġplastic": 4339, "Ġpair": 4340, "Ġobser": 4341, "Ġnature": 4342, "Ġmeeting": 4343, "Ġmechanic": 4344, "Ġfinds": 4345, "Ġfavourite": 4346, "Ġchimney": 4347, "Ġcaring": 4348, "Ġcur": 4349, "Ġboots": 4350, "Ġashtray": 4351, "Ġanyway": 4352, "Ġagree": 4353, "ĠOr": 4354, "ĠMar": 4355, "sses": 4356, "ement": 4357, "Ġunite": 4358, "Ġtomatoes": 4359, "Ġresist": 4360, "Ġmixer": 4361, "Ġlightning": 4362, "Ġgrabs": 4363, "Ġener": 4364, "Ġcows": 4365, "Ġbreat": 4366, "Ġblueberry": 4367, "Ġbeetle": 4368, "Ġbarking": 4369, "ĠJazz": 4370, "year": 4371, "hic": 4372, "Ġvehic": 4373, "Ġsubway": 4374, "Ġsport": 4375, "Ġpoint": 4376, "Ġpoked": 4377, "Ġminute": 4378, "Ġletters": 4379, "Ġimagine": 4380, "Ġholes": 4381, "Ġgiraffe": 4382, "Ġclassroom": 4383, "Ġcards": 4384, "Ġbelongs": 4385, "ĠAre": 4386, "ĠY": 4387, "night": 4388, "la": 4389, "hter": 4390, "book": 4391, "ayak": 4392, "amber": 4393, "Ġremove": 4394, "Ġoyster": 4395, "Ġnotebook": 4396, "Ġmistakes": 4397, "Ġlaughter": 4398, "Ġkayak": 4399, "Ġinvite": 4400, "Ġflood": 4401, "Ġbillboard": 4402, "ĠSophie": 4403, "ĠPippin": 4404, "ĠBounce": 4405, "ĠBig": 4406, "te": 4407, "apa": 4408, "Ġyield": 4409, "Ġremain": 4410, "Ġrac": 4411, "Ġpuddles": 4412, "Ġoxygen": 4413, "Ġnames": 4414, "Ġmusician": 4415, "Ġleaned": 4416, "Ġimprove": 4417, "Ġhanded": 4418, "Ġcountry": 4419, "Ġcartoon": 4420, "ĠAlice": 4421, "chair": 4422, "cast": 4423, "Jimmy": 4424, "Ġwhip": 4425, "Ġwarned": 4426, "Ġwarn": 4427, "Ġswamp": 4428, "Ġspoil": 4429, "Ġsandcast": 4430, "Ġsudden": 4431, "Ġsize": 4432, "Ġproudly": 4433, "Ġproblems": 4434, "Ġglowing": 4435, "Ġcourage": 4436, "Ġchamber": 4437, "Ġbookcase": 4438, "ĠSandy": 4439, "vice": 4440, "ola": 4441, "lend": 4442, "inarian": 4443, "igi": 4444, "eterinarian": 4445, "eb": 4446, "Ġwipe": 4447, "Ġwine": 4448, "Ġstrawberries": 4449, "Ġsadly": 4450, "Ġpushes": 4451, "Ġpulls": 4452, "Ġlawy": 4453, "Ġdancer": 4454, "Ġbeep": 4455, "Ġabove": 4456, "ĠRu": 4457, "ison": 4458, "Ġtrade": 4459, "Ġsurrender": 4460, "Ġsoil": 4461, "Ġslippery": 4462, "Ġsandbox": 4463, "Ġrescue": 4464, "Ġpanic": 4465, "Ġpages": 4466, "Ġnavy": 4467, "Ġfrowned": 4468, "Ġfre": 4469, "Ġcopper": 4470, "Ġcliff": 4471, "Ġceiling": 4472, "Ġbutterflies": 4473, "Ġappl": 4474, "ĠCo": 4475, "usie": 4476, "rod": 4477, "emember": 4478, "coli": 4479, "ccoli": 4480, "Ġveterinarian": 4481, "Ġtease": 4482, "Ġrece": 4483, "Ġplanes": 4484, "Ġpage": 4485, "Ġkneel": 4486, "Ġkinds": 4487, "Ġincre": 4488, "Ġfort": 4489, "Ġfeelings": 4490, "Ġcarrying": 4491, "Ġarmchair": 4492, "Ġart": 4493, "ĠPolly": 4494, "ĠOw": 4495, "Ġx": 4496, "gie": 4497, "ecause": 4498, "ebra": 4499, "aud": 4500, "Ġweapon": 4501, "Ġstair": 4502, "Ġrepeat": 4503, "Ġprovide": 4504, "Ġintrod": 4505, "Ġignore": 4506, "Ġenergy": 4507, "Ġdelay": 4508, "Ġbrightly": 4509, "Ġbelieved": 4510, "scope": 4511, "roscope": 4512, "nesday": 4513, "lendar": 4514, "lu": 4515, "ednesday": 4516, "cer": 4517, "anda": 4518, "Ġwaste": 4519, "Ġtools": 4520, "Ġsomewhere": 4521, "Ġshakes": 4522, "Ġregret": 4523, "Ġprayed": 4524, "Ġped": 4525, "Ġmailman": 4526, "Ġlid": 4527, "Ġheat": 4528, "Ġcalendar": 4529, "ĠPaul": 4530, "olog": 4531, "low": 4532, "imed": 4533, "Ġzebra": 4534, "Ġsounded": 4535, "Ġsandcastle": 4536, "Ġsaving": 4537, "Ġreminded": 4538, "Ġolder": 4539, "Ġnobody": 4540, "Ġmeas": 4541, "Ġlives": 4542, "Ġkeeping": 4543, "Ġapolog": 4544, "Ġadvice": 4545, "Ġaw": 4546, "ĠWhere": 4547, "ĠGod": 4548, "itation": 4549, "elcome": 4550, "Your": 4551, "Ġvehicle": 4552, "Ġraise": 4553, "Ġprice": 4554, "Ġmystery": 4555, "Ġlawyer": 4556, "Ġfreeze": 4557, "Ġflies": 4558, "Ġext": 4559, "Ġchoice": 4560, "Ġcane": 4561, "Ġanywhere": 4562, "hest": 4563, "eer": 4564, "Ġtax": 4565, "Ġsuggested": 4566, "Ġstarts": 4567, "Ġsoftly": 4568, "Ġshouts": 4569, "Ġshone": 4570, "Ġrooms": 4571, "Ġrushed": 4572, "Ġletting": 4573, "Ġinclu": 4574, "Ġimagined": 4575, "Ġhappens": 4576, "Ġdear": 4577, "Ġcrossed": 4578, "Ġcolourful": 4579, "Ġchairs": 4580, "Ġbreaks": 4581, "ĠSu": 4582, "ĠGrandpa": 4583, "ores": 4584, "ogn": 4585, "lex": 4586, "aurant": 4587, "alley": 4588, "aggie": 4589, "Ġtaxi": 4590, "Ġsqueeze": 4591, "Ġsmells": 4592, "Ġrestaurant": 4593, "Ġreplace": 4594, "Ġrecogn": 4595, "Ġpitch": 4596, "Ġexcitedly": 4597, "Ġeaten": 4598, "Ġchickens": 4599, "Ġapplaud": 4600, "ĠWiggly": 4601, "ĠPapa": 4602, "ĠNext": 4603, "ĠGigi": 4604, "orge": 4605, "indeer": 4606, "eorge": 4607, "apping": 4608, "Next": 4609, "Mary": 4610, "Mark": 4611, "Ġvalley": 4612, "Ġtrem": 4613, "Ġtub": 4614, "Ġsteam": 4615, "Ġreindeer": 4616, "Ġranch": 4617, "Ġrained": 4618, "Ġolive": 4619, "Ġgain": 4620, "Ġfile": 4621, "Ġcontent": 4622, "Ġbroccoli": 4623, "Ġblowing": 4624, "ĠCarl": 4625, "arlie": 4626, "Ġmicroscope": 4627, "Ġextra": 4628, "Ġended": 4629, "Ġequ": 4630, "Ġdishes": 4631, "ĠWould": 4632, "ĠWednesday": 4633, "ĠSte": 4634, "ĠV": 4635, "utor": 4636, "na": 4637, "ero": 4638, "ected": 4639, "Yuck": 4640, "Yay": 4641, "Ġtornado": 4642, "Ġspade": 4643, "Ġsneezed": 4644, "Ġreve": 4645, "Ġprepare": 4646, "Ġmass": 4647, "Ġhung": 4648, "Ġfresh": 4649, "Ġevent": 4650, "Ġdelighted": 4651, "Ġdare": 4652, "Ġchewed": 4653, "Ġbouncing": 4654, "Ġblueberries": 4655, "Ġbarks": 4656, "vet": 4657, "tain": 4658, "ggy": 4659, "Will": 4660, "Daisy": 4661, "Ġtutor": 4662, "Ġsettle": 4663, "Ġscold": 4664, "Ġriding": 4665, "Ġpoison": 4666, "Ġmyself": 4667, "Ġhoping": 4668, "Ġheads": 4669, "Ġgro": 4670, "Ġchance": 4671, "Ġargue": 4672, "ĠFl": 4673, "illie": 4674, "acation": 4675, "Ready": 4676, "Ġvacation": 4677, "Ġshrugged": 4678, "Ġquiz": 4679, "Ġopera": 4680, "ĠFreddy": 4681, "ĠBinky": 4682, "ipment": 4683, "cuss": 4684, "asis": 4685, "Qu": 4686, "Ġweather": 4687, "Ġskill": 4688, "Ġshivering": 4689, "Ġseas": 4690, "Ġsuff": 4691, "Ġprints": 4692, "Ġmissing": 4693, "Ġgiggle": 4694, "Ġfloat": 4695, "Ġevening": 4696, "Ġequipment": 4697, "Ġenter": 4698, "Ġdiscuss": 4699, "Ġchores": 4700, "Ġburned": 4701, "Ġbend": 4702, "Ġbaking": 4703, "ĠSpark": 4704, "ĠEnd": 4705, "ucture": 4706, "noon": 4707, "acked": 4708, "Ġthanks": 4709, "Ġstructure": 4710, "Ġsty": 4711, "Ġreveal": 4712, "Ġpushing": 4713, "Ġprune": 4714, "Ġoasis": 4715, "Ġmention": 4716, "Ġinvitation": 4717, "Ġfixing": 4718, "Ġafternoon": 4719, "ky": 4720, "inking": 4721, "heart": 4722, "Ġyawned": 4723, "Ġwriting": 4724, "Ġtrusted": 4725, "Ġthrows": 4726, "Ġthrowing": 4727, "Ġspots": 4728, "Ġsocks": 4729, "Ġpuzzles": 4730, "Ġplaced": 4731, "Ġperfume": 4732, "Ġhills": 4733, "Ġgrand": 4734, "Ġdem": 4735, "Ġbumped": 4736, "ĠUnder": 4737, "ĠLilly": 4738, "sity": 4739, "otten": 4740, "ana": 4741, "Ann": 4742, "Ġtracks": 4743, "Ġparts": 4744, "Ġmall": 4745, "Ġluck": 4746, "Ġinsisted": 4747, "Ġcoats": 4748, "Ġcaptain": 4749, "Ġbelow": 4750, "Ġbeans": 4751, "ĠMike": 4752, "queaky": 4753, "happy": 4754, "ef": 4755, "Ch": 4756, "Buddy": 4757, "\",": 4758, "Ġsweetheart": 4759, "Ġsticky": 4760, "Ġshower": 4761, "Ġshoulder": 4762, "Ġsew": 4763, "Ġsigh": 4764, "Ġprinted": 4765, "Ġpastel": 4766, "Ġfollowing": 4767, "Ġclaw": 4768, "Ġcared": 4769, "Ġbrighter": 4770, "ĠMe": 4771, "va": 4772, "peedy": 4773, "omm": 4774, "ommend": 4775, "Not": 4776, "All": 4777, "Ġunhappy": 4778, "Ġteaching": 4779, "Ġrecommend": 4780, "Ġpunish": 4781, "Ġpanda": 4782, "Ġimpressed": 4783, "Ġgreedy": 4784, "Ġexpect": 4785, "ĠUn": 4786, "ĠBow": 4787, "uggage": 4788, "look": 4789, "iform": 4790, "ations": 4791, "Ġuniform": 4792, "Ġexper": 4793, "Ġdeeper": 4794, "Ġcandles": 4795, "Ġbeg": 4796, "ĠRo": 4797, "ĠHoppy": 4798, "ĠHave": 4799, "ĠĊ": 4800, "nce": 4801, "lp": 4802, "enry": 4803, "Jenny": 4804, "Daddy": 4805, "Before": 4806, "Ġyucky": 4807, "Ġweight": 4808, "Ġtour": 4809, "Ġsprayed": 4810, "Ġsplashing": 4811, "Ġsparkled": 4812, "Ġscore": 4813, "Ġluggage": 4814, "Ġhen": 4815, "Ġeasily": 4816, "Ġcub": 4817, "Ġclapping": 4818, "ĠPenny": 4819, "ĠEventually": 4820, "ĠChe": 4821, "looking": 4822, "ittens": 4823, "arnt": 4824, "Surpr": 4825, "Ġwhisper": 4826, "Ġsteel": 4827, "Ġsir": 4828, "Ġracing": 4829, "Ġlemonade": 4830, "Ġlearnt": 4831, "Ġignored": 4832, "Ġfollows": 4833, "Ġdestroyed": 4834, "Ġchecked": 4835, "ĠHelp": 4836, "urnit": 4837, "urniture": 4838, "ucked": 4839, "riage": 4840, "hood": 4841, "ecting": 4842, "cond": 4843, "ari": 4844, "anges": 4845, "Mimi": 4846, "Ġworms": 4847, "Ġwigg": 4848, "Ġvanished": 4849, "Ġupstairs": 4850, "Ġtremble": 4851, "Ġspr": 4852, "Ġselling": 4853, "Ġsecond": 4854, "Ġscattered": 4855, "Ġpermit": 4856, "Ġfro": 4857, "Ġfurniture": 4858, "Ġcheek": 4859, "Ġchirp": 4860, "Ġburied": 4861, "ĠWhenever": 4862, "ĠSusie": 4863, "ĠOlive": 4864, "ween": 4865, "uct": 4866, "reek": 4867, "iki": 4868, "ents": 4869, "Welcome": 4870, "Ġwhistled": 4871, "Ġvroom": 4872, "Ġstreng": 4873, "Ġsorting": 4874, "Ġreef": 4875, "Ġjogged": 4876, "Ġjail": 4877, "Ġentered": 4878, "Ġdemand": 4879, "Ġcreek": 4880, "Ġbetween": 4881, "Ġbadly": 4882, "ĠSnowy": 4883, "ĠIs": 4884, "redient": 4885, "laimed": 4886, "ingredient": 4887, "ides": 4888, "ecture": 4889, "Ġwre": 4890, "Ġthumb": 4891, "Ġsupply": 4892, "Ġstyle": 4893, "Ġrush": 4894, "Ġquite": 4895, "Ġpoints": 4896, "Ġpaid": 4897, "Ġmassage": 4898, "Ġmarble": 4899, "Ġlecture": 4900, "Ġhopes": 4901, "Ġexclaimed": 4902, "Ġcounter": 4903, "Ġclaws": 4904, "Ġbricks": 4905, "ĠFroggy": 4906, "Ġingredient": 4907, "izes": 4908, "Surprise": 4909, "Ġstrength": 4910, "Ġseats": 4911, "Ġscratch": 4912, "Ġrow": 4913, "Ġpetals": 4914, "Ġport": 4915, "Ġneighbour": 4916, "Ġhurting": 4917, "Ġgrant": 4918, "Ġcutting": 4919, "Ġclimbs": 4920, "Ġbreathe": 4921, "Ġbother": 4922, "ĠSqueaky": 4923, "ĠPr": 4924, "ges": 4925, "These": 4926, "Alice": 4927, "ĠâĢĵ": 4928, "Ġtug": 4929, "Ġshopkeeper": 4930, "Ġraining": 4931, "Ġputting": 4932, "Ġmenu": 4933, "Ġmarriage": 4934, "Ġcakes": 4935, "Ġbears": 4936, "Ġallow": 4937, "ĠWho": 4938, "ĠSpeedy": 4939, "ĠSm": 4940, "ĠMittens": 4941, "urther": 4942, "resses": 4943, "Ġworks": 4944, "Ġwags": 4945, "Ġwaving": 4946, "Ġstarting": 4947, "Ġsnail": 4948, "Ġprinter": 4949, "Ġpigs": 4950, "Ġingredients": 4951, "Ġheel": 4952, "Ġforgotten": 4953, "Ġexplored": 4954, "Ġagre": 4955, "Ġadmired": 4956, "ĠLola": 4957, "ĠGrace": 4958, "ĠAlex": 4959, "right": 4960, "ecially": 4961, "Grandma": 4962, "Because": 4963, "Ġwreck": 4964, "Ġwashing": 4965, "Ġsoc": 4966, "Ġshined": 4967, "Ġscoop": 4968, "Ġsailing": 4969, "Ġplates": 4970, "Ġobserve": 4971, "Ġjogging": 4972, "Ġintroduce": 4973, "Ġhon": 4974, "Ġfallen": 4975, "Ġfurther": 4976, "Ġeagerly": 4977, "Ġdrops": 4978, "Ġdifference": 4979, "Ġdaisy": 4980, "Ġbalan": 4981, "Ġapart": 4982, "ĠFinn": 4983, "thank": 4984, "specially": 4985, "atched": 4986, "Ġtuna": 4987, "Ġstrike": 4988, "Ġsoccer": 4989, "Ġpup": 4990, "Ġfloated": 4991, "Ġduring": 4992, "Ġblood": 4993, "Ġacted": 4994, "ĠSharing": 4995, "ĠMaggie": 4996, "reat": 4997, "icer": 4998, "eration": 4999, "Ġyawn": 5000, "Ġworth": 5001, "Ġwarning": 5002, "Ġwandered": 5003, "Ġtong": 5004, "Ġstudied": 5005, "Ġrul": 5006, "Ġplays": 5007, "Ġplanted": 5008, "Ġmoves": 5009, "Ġincrease": 5010, "Ġhorses": 5011, "Ġhighest": 5012, "Ġfolded": 5013, "Ġflapped": 5014, "Ġespecially": 5015, "Ġbuzz": 5016, "Ġbeauty": 5017, "ĠTilly": 5018, "ĠRemember": 5019, "ĠNana": 5020, "uesday": 5021, "shed": 5022, "reeze": 5023, "quest": 5024, "quake": 5025, "Bl": 5026, "Bella": 5027, "..": 5028, "Ġwatered": 5029, "Ġurge": 5030, "Ġshouting": 5031, "Ġreaches": 5032, "Ġpresents": 5033, "Ġoh": 5034, "Ġkingdom": 5035, "Ġgiven": 5036, "Ġfamil": 5037, "Ġexamine": 5038, "Ġconf": 5039, "ĠTuesday": 5040, "ĠOwl": 5041, "ĠLizzy": 5042, "ĠKiki": 5043, "ĠEverything": 5044, "unately": 5045, "raged": 5046, "medi": 5047, "mediately": 5048, "men": 5049, "bor": 5050, "Fred": 5051, "Ella": 5052, "Ġuniversity": 5053, "Ġtwisted": 5054, "Ġsorts": 5055, "Ġsolved": 5056, "Ġsoak": 5057, "Ġsnapped": 5058, "Ġslapped": 5059, "Ġscolded": 5060, "Ġquietly": 5061, "Ġlands": 5062, "Ġharbor": 5063, "Ġgifts": 5064, "Ġelephants": 5065, "Ġearthquake": 5066, "Ġdressed": 5067, "Ġbrings": 5068, "Ġbak": 5069, "ĠSee": 5070, "ĠCoco": 5071, "ĠCharlie": 5072, "omeday": 5073, "Leo": 5074, "Ġzigzag": 5075, "Ġzero": 5076, "Ġtongue": 5077, "Ġsnugg": 5078, "Ġsits": 5079, "Ġrequest": 5080, "Ġpur": 5081, "Ġinst": 5082, "Ġhearts": 5083, "Ġhadn": 5084, "Ġexperience": 5085, "Ġcurled": 5086, "Ġcrash": 5087, "ĠMilly": 5088, "ĠDave": 5089, "sterday": 5090, "sed": 5091, "pted": 5092, "isses": 5093, "esterday": 5094, "Everyone": 5095, "Emma": 5096, "Ġwisdom": 5097, "Ġwest": 5098, "Ġtrave": 5099, "Ġsliding": 5100, "Ġplanned": 5101, "Ġoranges": 5102, "Ġoperation": 5103, "Ġmemory": 5104, "Ġmister": 5105, "Ġkisses": 5106, "Ġimage": 5107, "Ġcomf": 5108, "ĠLe": 5109, "ĠKate": 5110, "ĠBubbles": 5111, "rise": 5112, "ipping": 5113, "eath": 5114, "do": 5115, "Ġworse": 5116, "Ġtide": 5117, "Ġstuffed": 5118, "Ġsqueezed": 5119, "Ġskills": 5120, "Ġsomeday": 5121, "Ġsizes": 5122, "Ġruler": 5123, "Ġprett": 5124, "Ġpaused": 5125, "Ġlicks": 5126, "Ġfields": 5127, "Ġbouncy": 5128, "Ġattached": 5129, "ĠRuby": 5130, "ĠGood": 5131, "ĠFinny": 5132, "ories": 5133, "mm": 5134, "atie": 5135, "aded": 5136, "Woof": 5137, "'ve": 5138, "Ġsuffer": 5139, "Ġsorted": 5140, "Ġshot": 5141, "Ġsince": 5142, "Ġrelease": 5143, "Ġpulling": 5144, "Ġmanage": 5145, "Ġmama": 5146, "Ġimagination": 5147, "Ġideas": 5148, "Ġencourage": 5149, "Ġcolours": 5150, "Ġcatching": 5151, "Ġcape": 5152, "Ġappear": 5153, "Ġaccepted": 5154, "ĠAbby": 5155, "Today": 5156, "Ha": 5157, "Ġzookeeper": 5158, "Ġwelcomed": 5159, "Ġtwirled": 5160, "Ġtonight": 5161, "Ġpearl": 5162, "Ġpeaches": 5163, "Ġnews": 5164, "Ġmeasured": 5165, "Ġmice": 5166, "Ġimmediately": 5167, "Ġdried": 5168, "Ġblankets": 5169, "Ġbones": 5170, "Ġattention": 5171, "ĠToto": 5172, "ĠRock": 5173, "ĠBop": 5174, "yth": 5175, "sters": 5176, "indy": 5177, "ippy": 5178, "house": 5179, "ction": 5180, "With": 5181, "Ġwhistling": 5182, "Ġwagging": 5183, "Ġtucked": 5184, "Ġsunrise": 5185, "Ġspike": 5186, "Ġsettled": 5187, "Ġseason": 5188, "Ġrabbits": 5189, "Ġpeanuts": 5190, "Ġmelted": 5191, "Ġleather": 5192, "Ġgrowled": 5193, "Ġclosely": 5194, "Ġcelebrated": 5195, "Ġcalls": 5196, "ĠSky": 5197, "ĠRos": 5198, "ĠPip": 5199, "ĠMillie": 5200, "ĠGeorge": 5201, "ĠBefore": 5202, "ĠBee": 5203, "ups": 5204, "ored": 5205, "ips": 5206, "etch": 5207, "cery": 5208, "Remy": 5209, "Ġwinning": 5210, "Ġtastes": 5211, "Ġstealing": 5212, "Ġsi": 5213, "Ġremained": 5214, "Ġrecognize": 5215, "Ġreceive": 5216, "Ġquack": 5217, "Ġours": 5218, "Ġmarried": 5219, "Ġgrocery": 5220, "Ġglo": 5221, "Ġfireman": 5222, "Ġdownstairs": 5223, "Ġdisagreed": 5224, "Ġdresses": 5225, "Ġble": 5226, "ĠZara": 5227, "ĠMo": 5228, "ĠHo": 5229, "walk": 5230, "unday": 5231, "rank": 5232, "ising": 5233, "fortunately": 5234, "Blue": 5235, "Ġzipped": 5236, "Ġwooden": 5237, "Ġunderstanding": 5238, "Ġtremb": 5239, "Ġtore": 5240, "Ġtoes": 5241, "Ġsurround": 5242, "Ġstro": 5243, "Ġstirring": 5244, "Ġsoaked": 5245, "Ġsnuggled": 5246, "Ġsidewalk": 5247, "Ġshed": 5248, "Ġsafari": 5249, "Ġpunished": 5250, "Ġpalm": 5251, "Ġmemories": 5252, "Ġlips": 5253, "Ġinf": 5254, "Ġgloves": 5255, "Ġemer": 5256, "Ġeasier": 5257, "Ġbang": 5258, "ĠWally": 5259, "ĠSteve": 5260, "ĠSunday": 5261, "ĠPat": 5262, "ĠHope": 5263, "ĠClara": 5264, "ythm": 5265, "icky": 5266, "icing": 5267, "ddy": 5268, "ding": 5269, "Bird": 5270, "Ġuniverse": 5271, "Ġstraight": 5272, "Ġsnowball": 5273, "Ġseeing": 5274, "Ġrang": 5275, "Ġpotatoes": 5276, "Ġisn": 5277, "Ġhits": 5278, "Ġencouraged": 5279, "Ġcreatures": 5280, "Ġcollection": 5281, "Ġbreaking": 5282, "Ġbackpack": 5283, "Ġbaked": 5284, "ĠRed": 5285, "ĠFox": 5286, "ĠDanny": 5287, "rr": 5288, "ops": 5289, "ien": 5290, "Peter": 5291, "Ok": 5292, "Ġtrembling": 5293, "Ġringing": 5294, "Ġraised": 5295, "Ġpirates": 5296, "Ġpedal": 5297, "Ġoffer": 5298, "Ġlung": 5299, "Ġgrin": 5300, "Ġgazed": 5301, "Ġfloating": 5302, "Ġflap": 5303, "Ġacorns": 5304, "ĠSuzy": 5305, "ĠSmith": 5306, "ĠRay": 5307, "ĠJess": 5308, "ĠHenry": 5309, "ĠAva": 5310, "sing": 5311, "ites": 5312, "isdom": 5313, "eep": 5314, "bles": 5315, "aped": 5316, "abies": 5317, "Lisa": 5318, "Ġwaits": 5319, "Ġwob": 5320, "Ġunlocked": 5321, "Ġspit": 5322, "Ġshouldn": 5323, "Ġshopping": 5324, "Ġrelaxed": 5325, "Ġpebbles": 5326, "Ġpad": 5327, "Ġmuscles": 5328, "Ġlandsc": 5329, "Ġkites": 5330, "Ġkicking": 5331, "Ġinclude": 5332, "Ġhers": 5333, "Ġflat": 5334, "Ġfireworks": 5335, "Ġfiref": 5336, "Ġcrawling": 5337, "Ġbrus": 5338, "Ġbites": 5339, "Ġbabies": 5340, "Ġalright": 5341, "ĠEach": 5342, "ĠBaby": 5343, "orted": 5344, "igging": 5345, "icorn": 5346, "Would": 5347, "Ġweb": 5348, "Ġwatches": 5349, "Ġunicorn": 5350, "Ġsimp": 5351, "Ġfamilies": 5352, "Ġdared": 5353, "Ġbrain": 5354, "Ġbleed": 5355, "Ġappro": 5356, "ĠZigzag": 5357, "ĠRobby": 5358, "ĠMandy": 5359, "ĠFollow": 5360, "ther": 5361, "kins": 5362, "ids": 5363, "ety": 5364, "allen": 5365, "Momo": 5366, "Ġvisited": 5367, "Ġtallest": 5368, "Ġsneak": 5369, "Ġshadows": 5370, "Ġsafety": 5371, "Ġresting": 5372, "Ġpetted": 5373, "Ġopin": 5374, "Ġmouths": 5375, "Ġmatched": 5376, "Ġkneeled": 5377, "Ġkeeps": 5378, "Ġkitty": 5379, "Ġinstr": 5380, "Ġgirls": 5381, "Ġexit": 5382, "Ġdrinking": 5383, "Ġdigging": 5384, "Ġchewing": 5385, "Ġchallen": 5386, "Ġbeds": 5387, "Ġbreeze": 5388, "ĠSun": 5389, "ĠRosie": 5390, "ĠJames": 5391, "umes": 5392, "uzz": 5393, "rec": 5394, "lvet": 5395, "ler": 5396, "ishy": 5397, "ishing": 5398, "elle": 5399, "Ġweeping": 5400, "Ġweighed": 5401, "Ġvelvet": 5402, "Ġvet": 5403, "Ġunderground": 5404, "Ġstudying": 5405, "Ġstitch": 5406, "Ġsilence": 5407, "Ġserved": 5408, "Ġplaytime": 5409, "Ġpiles": 5410, "Ġordered": 5411, "Ġnone": 5412, "Ġmuddy": 5413, "Ġlaid": 5414, "Ġlined": 5415, "Ġdisagree": 5416, "Ġcartoons": 5417, "Ġamazement": 5418, "ĠZoe": 5419, "ĠThese": 5420, "ĠSlow": 5421, "ĠMaria": 5422, "ĠMel": 5423, "ĠKing": 5424, "reci": 5425, "oral": 5426, "chie": 5427, "avid": 5428, "Tr": 5429, "!\",": 5430, "!'": 5431, "Ġwinner": 5432, "Ġvanish": 5433, "Ġtwink": 5434, "Ġtreasures": 5435, "Ġspoons": 5436, "Ġsigns": 5437, "Ġsetting": 5438, "Ġroots": 5439, "Ġroads": 5440, "Ġrepeated": 5441, "Ġnowhere": 5442, "Ġnapping": 5443, "Ġmixing": 5444, "Ġlick": 5445, "Ġlandscape": 5446, "Ġgust": 5447, "Ġcrunch": 5448, "Ġcostumes": 5449, "Ġbye": 5450, "Ġappreci": 5451, "ĠSomething": 5452, "ĠNot": 5453, "ĠLucky": 5454, "ĊĠ": 5455, "rs": 5456, "oved": 5457, "izing": 5458, "coon": 5459, "aved": 5460, "Yum": 5461, "Thanks": 5462, "Johnny": 5463, "Bobby": 5464, ".'": 5465, "Ġvoices": 5466, "Ġurged": 5467, "Ġstrang": 5468, "Ġsisters": 5469, "Ġsausages": 5470, "Ġsix": 5471, "Ġsip": 5472, "Ġrhythm": 5473, "Ġpinched": 5474, "Ġpets": 5475, "Ġperfectly": 5476, "Ġjazz": 5477, "Ġimportance": 5478, "Ġhappiest": 5479, "Ġemergen": 5480, "Ġdecorations": 5481, "Ġdecorated": 5482, "ĠWisdom": 5483, "ĠTony": 5484, "ĠLater": 5485, "ĠBouncy": 5486, "ĠBree": 5487, "ĠQu": 5488, "umble": 5489, "shion": 5490, "oys": 5491, "Sp": 5492, "Ġwaist": 5493, "Ġwink": 5494, "Ġresult": 5495, "Ġprepared": 5496, "Ġpatterns": 5497, "Ġpra": 5498, "Ġmentioned": 5499, "Ġlets": 5500, "Ġlily": 5501, "Ġknights": 5502, "Ġinfant": 5503, "Ġguessed": 5504, "Ġfashion": 5505, "Ġdraws": 5506, "Ġdire": 5507, "Ġclearing": 5508, "Ġagreement": 5509, "ĠTed": 5510, "ĠPeanut": 5511, "ĠOut": 5512, "ĠHarry": 5513, "ssible": 5514, "plash": 5515, "oming": 5516, "isten": 5517, "irts": 5518, "iers": 5519, "hello": 5520, "ena": 5521, "Sammy": 5522, "Happy": 5523, "Dog": 5524, "Ġwaffles": 5525, "Ġturning": 5526, "Ġthrill": 5527, "Ġstrangers": 5528, "Ġsprink": 5529, "Ġscru": 5530, "Ġpoems": 5531, "Ġphot": 5532, "Ġourselves": 5533, "Ġnoon": 5534, "Ġmoments": 5535, "Ġmarks": 5536, "Ġknown": 5537, "Ġhurried": 5538, "Ġescaped": 5539, "Ġeagle": 5540, "Ġcrunchy": 5541, "Ġbeard": 5542, "Ġadmir": 5543, "ĠLiz": 5544, "ĠFrank": 5545, "ĠBoth": 5546, "zen": 5547, "ship": 5548, "please": 5549, "ities": 5550, "antly": 5551, "Sophie": 5552, "Moral": 5553, "Jen": 5554, "Emily": 5555, "Ġspending": 5556, "Ġsoldiers": 5557, "Ġruin": 5558, "Ġripped": 5559, "Ġpillows": 5560, "Ġpeel": 5561, "Ġlogs": 5562, "Ġlimes": 5563, "Ġgrinned": 5564, "Ġgran": 5565, "Ġgoals": 5566, "Ġfrozen": 5567, "Ġforgi": 5568, "Ġfetch": 5569, "Ġexpected": 5570, "Ġdisturbed": 5571, "Ġcuddled": 5572, "Ġcrashed": 5573, "Ġbravely": 5574, "Ġbrid": 5575, "Ġbowed": 5576, "Ġbehaved": 5577, "Ġapologized": 5578, "ĠWatch": 5579, "ĠPrin": 5580, "ĠCar": 5581, "vest": 5582, "uddles": 5583, "tory": 5584, "ishes": 5585, "ived": 5586, "ded": 5587, "acob": 5588, "Cat": 5589, "Ġstruggle": 5590, "Ġphotos": 5591, "Ġmatching": 5592, "Ġlines": 5593, "Ġknelt": 5594, "Ġhistory": 5595, "Ġguy": 5596, "Ġgained": 5597, "Ġfishing": 5598, "Ġemergency": 5599, "Ġdads": 5600, "Ġcollecting": 5601, "Ġbeneath": 5602, "ĠJoey": 5603, "ĠDid": 5604, "ĠCuddles": 5605, "xture": 5606, "ud": 5607, "omas": 5608, "ctly": 5609, "choo": 5610, "arth": 5611, "Watch": 5612, "Goodbye": 5613, "Ġwondering": 5614, "Ġwarmth": 5615, "Ġtrapped": 5616, "Ġtexture": 5617, "Ġsore": 5618, "Ġsoared": 5619, "Ġslice": 5620, "Ġskipping": 5621, "Ġrested": 5622, "Ġresp": 5623, "Ġpies": 5624, "Ġmeow": 5625, "Ġitem": 5626, "Ġhes": 5627, "Ġdrinks": 5628, "Ġdragons": 5629, "Ġcollected": 5630, "Ġchallenge": 5631, "Ġburning": 5632, "Ġbuildings": 5633, "Ġbridges": 5634, "Ġbegged": 5635, "Ġbeat": 5636, "Ġanswers": 5637, "ĠRocky": 5638, "ĠJosh": 5639, "ĠIts": 5640, "ĠHop": 5641, "ales": 5642, "Ducky": 5643, "Andy": 5644, "Ġwiggle": 5645, "Ġthreat": 5646, "Ġstamps": 5647, "Ġsimple": 5648, "Ġscreams": 5649, "Ġscratched": 5650, "Ġscaring": 5651, "Ġpraised": 5652, "Ġopinion": 5653, "Ġlied": 5654, "Ġkindly": 5655, "Ġcrabs": 5656, "Ġapproached": 5657, "Ġago": 5658, "ĠSof": 5659, "ĠHappy": 5660, "ĠBug": 5661, "ĠBo": 5662, "utter": 5663, "ury": 5664, "iti": 5665, "ica": 5666, "hind": 5667, "emb": 5668, "bug": 5669, "akes": 5670, "Miss": 5671, "Ġwonders": 5672, "Ġtwigs": 5673, "Ġtheirs": 5674, "Ġteasing": 5675, "Ġsparkling": 5676, "Ġscrubbed": 5677, "Ġolives": 5678, "Ġneighborhood": 5679, "Ġladybug": 5680, "Ġgolden": 5681, "Ġgathering": 5682, "Ġeast": 5683, "Ġcomfy": 5684, "Ġbrushed": 5685, "Ġboom": 5686, "Ġblink": 5687, "ĠStop": 5688, "ĠStitch": 5689, "ĠKatie": 5690, "zing": 5691, "vestig": 5692, "mare": 5693, "lier": 5694, "ino": 5695, "embers": 5696, "bbing": 5697, "Really": 5698, "Eventually": 5699, "Benny": 5700, "Ġteaches": 5701, "Ġtim": 5702, "Ġstrings": 5703, "Ġsting": 5704, "Ġslim": 5705, "Ġshoulders": 5706, "Ġropes": 5707, "Ġremembers": 5708, "Ġnightmare": 5709, "Ġmuffins": 5710, "Ġjoking": 5711, "Ġinvestig": 5712, "Ġherbs": 5713, "Ġgranted": 5714, "Ġgaze": 5715, "Ġfed": 5716, "Ġeff": 5717, "Ġcopy": 5718, "Ġbroom": 5719, "Ġbeamed": 5720, "Ġann": 5721, "ĠLou": 5722, "ĠDare": 5723, "ĠCatty": 5724, "ĠBeing": 5725, "wh": 5726, "urry": 5727, "uest": 5728, "riends": 5729, "osed": 5730, "ogo": 5731, "anny": 5732, "ados": 5733, "Sandy": 5734, "Poppy": 5735, "Mmm": 5736, "Ġzooming": 5737, "Ġwrites": 5738, "Ġtwin": 5739, "Ġtrips": 5740, "Ġthrilled": 5741, "Ġswims": 5742, "Ġsparkle": 5743, "Ġsneaked": 5744, "Ġslimy": 5745, "Ġshock": 5746, "Ġroaring": 5747, "Ġrefu": 5748, "Ġrecorded": 5749, "Ġreceived": 5750, "Ġpencils": 5751, "Ġpedals": 5752, "Ġparties": 5753, "Ġmarching": 5754, "Ġloose": 5755, "Ġinvestigate": 5756, "Ġhissed": 5757, "Ġheaded": 5758, "Ġhardly": 5759, "Ġgrey": 5760, "Ġglowed": 5761, "Ġeats": 5762, "Ġdoggy": 5763, "Ġdot": 5764, "Ġcubes": 5765, "Ġcreated": 5766, "Ġbrushes": 5767, "Ġavocados": 5768, "Ġargued": 5769, "Ġalien": 5770, "Ġairpl": 5771, "Ġactiv": 5772, "Ġawe": 5773, "ĠSparky": 5774, "ĠSomeone": 5775, "ĠPinky": 5776, "ĠMissile": 5777, "ĠMay": 5778, "ĠIzzy": 5779, "ĠHenny": 5780, "ĠAlways": 5781, "xury": 5782, "ulie": 5783, "uxury": 5784, "uke": 5785, "ppers": 5786, "mother": 5787, "iam": 5788, "elvet": 5789, "araway": 5790, "allow": 5791, "ah": 5792, "Un": 5793, "ĠâĢĺ": 5794, "Ġyouth": 5795, "Ġwears": 5796, "Ġwed": 5797, "Ġtraveled": 5798, "Ġtugged": 5799, "Ġsweeties": 5800, "Ġsupposed": 5801, "Ġstudents": 5802, "Ġstretching": 5803, "Ġsticking": 5804, "Ġsteep": 5805, "Ġscreaming": 5806, "Ġremoved": 5807, "Ġremote": 5808, "Ġradishes": 5809, "Ġpots": 5810, "Ġnicer": 5811, "Ġmountains": 5812, "Ġmelting": 5813, "Ġmarbles": 5814, "Ġmaster": 5815, "Ġloving": 5816, "Ġleader": 5817, "Ġkeeper": 5818, "Ġjewels": 5819, "Ġinch": 5820, "Ġhealed": 5821, "Ġguest": 5822, "Ġfaraway": 5823, "Ġeffort": 5824, "Ġdestination": 5825, "Ġdecides": 5826, "Ġchirped": 5827, "Ġcheering": 5828, "Ġcrow": 5829, "Ġbalancing": 5830, "Ġarea": 5831, "ĠTw": 5832, "ĠTiti": 5833, "ĠSqu": 5834, "ĠSplash": 5835, "ĠFirst": 5836, "ĠDodo": 5837, "ĠCindy": 5838, "ĠAnnie": 5839, "âĢĿ.": 5840, "osity": 5841, "loe": 5842, "ission": 5843, "hee": 5844, "True": 5845, "Time": 5846, "Shh": 5847, "Ollie": 5848, "James": 5849, "Cl": 5850, "Ġyelling": 5851, "Ġtricked": 5852, "Ġstripes": 5853, "Ġsnakes": 5854, "Ġsled": 5855, "Ġsitu": 5856, "Ġrevealed": 5857, "Ġrealize": 5858, "Ġpraying": 5859, "Ġprop": 5860, "Ġpolished": 5861, "Ġowned": 5862, "Ġmonsters": 5863, "Ġhated": 5864, "Ġhitting": 5865, "Ġdeser": 5866, "Ġdelivered": 5867, "Ġclaps": 5868, "Ġcough": 5869, "Ġbuckets": 5870, "ĠSad": 5871, "ĠMoon": 5872, "ĠMon": 5873, "ĠCra": 5874, "ĠYes": 5875, "jam": 5876, "boo": 5877, "aws": 5878, "avi": 5879, "agull": 5880, "affes": 5881, "Ex": 5882, "Boo": 5883, "Ġwherever": 5884, "Ġtickle": 5885, "Ġtalent": 5886, "Ġstaying": 5887, "Ġseems": 5888, "Ġsecrets": 5889, "Ġseagull": 5890, "Ġsafer": 5891, "Ġprovided": 5892, "Ġpermission": 5893, "Ġparked": 5894, "Ġopening": 5895, "Ġmeasuring": 5896, "Ġmane": 5897, "Ġluxury": 5898, "Ġgiraffes": 5899, "Ġfrost": 5900, "Ġfears": 5901, "Ġfaced": 5902, "Ġearlier": 5903, "Ġcuts": 5904, "Ġcontinue": 5905, "Ġcomplaining": 5906, "Ġcrew": 5907, "Ġbeside": 5908, "Ġbakery": 5909, "ĠVelvet": 5910, "ĠTuna": 5911, "ĠJacob": 5912, "ĠChicky": 5913, "ĠBoo": 5914, "ĠAn": 5915, "ĠOnce": 5916, "Ġ1": 5917, "usty": 5918, "ues": 5919, "mies": 5920, "isty": 5921, "int": 5922, "ifi": 5923, "ha": 5924, "esome": 5925, "cus": 5926, "anging": 5927, "Rob": 5928, "Ro": 5929, "Rex": 5930, "Meow": 5931, "'.": 5932, "Ġwindy": 5933, "Ġtouching": 5934, "Ġtails": 5935, "Ġsweat": 5936, "Ġstruggled": 5937, "Ġshooting": 5938, "Ġrule": 5939, "Ġrefuse": 5940, "Ġrele": 5941, "Ġpupil": 5942, "Ġproper": 5943, "Ġpans": 5944, "Ġpaints": 5945, "Ġmagnets": 5946, "Ġhorns": 5947, "Ġheroes": 5948, "Ġfeeding": 5949, "Ġdusty": 5950, "Ġdiscovery": 5951, "Ġdarker": 5952, "Ġcandies": 5953, "Ġbleeding": 5954, "Ġbare": 5955, "Ġawesome": 5956, "Ġadmiring": 5957, "Ġactually": 5958, "Ġactions": 5959, "Ġacting": 5960, "ĠEarth": 5961, "ĠDuck": 5962, "ĠDavid": 5963, "uckily": 5964, "quid": 5965, "pie": 5966, "ouch": 5967, "ora": 5968, "ners": 5969, "ls": 5970, "iar": 5971, "dies": 5972, "anta": 5973, "aster": 5974, "Stay": 5975, "Jo": 5976, "Ġweeks": 5977, "Ġwedding": 5978, "Ġwasted": 5979, "Ġwanting": 5980, "Ġwiz": 5981, "Ġvalued": 5982, "Ġvict": 5983, "Ġtwisty": 5984, "Ġtune": 5985, "Ġtoss": 5986, "Ġtimer": 5987, "Ġteamwork": 5988, "Ġsurrounded": 5989, "Ġstruggling": 5990, "Ġspraying": 5991, "Ġspaceship": 5992, "Ġsneaky": 5993, "Ġshrug": 5994, "Ġrestored": 5995, "Ġprettiest": 5996, "Ġpatiently": 5997, "Ġonwards": 5998, "Ġobe": 5999, "Ġneighbourhood": 6000, "Ġneighbors": 6001, "Ġliquid": 6002, "Ġhesit": 6003, "Ġhelmets": 6004, "Ġglasses": 6005, "Ġfoods": 6006, "Ġflags": 6007, "Ġdinosaurs": 6008, "Ġdied": 6009, "Ġcreation": 6010, "Ġcontest": 6011, "Ġcontain": 6012, "Ġcompany": 6013, "Ġbedtime": 6014, "Ġawake": 6015, "ĠWater": 6016, "ĠRover": 6017, "ĠRe": 6018, "ĠKids": 6019, "ĠDino": 6020, "ĠBye": 6021, "screen": 6022, "rian": 6023, "lee": 6024, "go": 6025, "enty": 6026, "compl": 6027, "band": 6028, "ashed": 6029, "amie": 6030, "ads": 6031, "Tiny": 6032, "George": 6033, "Ew": 6034, "Ġworker": 6035, "Ġsucceeded": 6036, "Ġstare": 6037, "Ġsights": 6038, "Ġsiren": 6039, "Ġscooters": 6040, "Ġsings": 6041, "Ġrecognized": 6042, "Ġquacked": 6043, "Ġproject": 6044, "Ġpride": 6045, "Ġpolishing": 6046, "Ġpoking": 6047, "Ġpaying": 6048, "Ġpaintings": 6049, "Ġobey": 6050, "Ġloaded": 6051, "Ġinsist": 6052, "Ġglitter": 6053, "Ġfrosting": 6054, "Ġcrept": 6055, "Ġchef": 6056, "Ġcatches": 6057, "Ġbloomed": 6058, "Ġappreciate": 6059, "Ġachie": 6060, "ĠSpring": 6061, "ĠSlowly": 6062, "ĠSanta": 6063, "ĠQuick": 6064, "ĠLike": 6065, "ĠKeep": 6066, "ĠKay": 6067, "ĠX": 6068, "ulp": 6069, "uffin": 6070, "uctions": 6071, "scin": 6072, "nie": 6073, "ays": 6074, "Whiskers": 6075, "Remember": 6076, "Pete": 6077, "Paul": 6078, "Mrs": 6079, "During": 6080, "...\"": 6081, "Ġtraded": 6082, "Ġthud": 6083, "Ġsplashes": 6084, "Ġsighs": 6085, "Ġseven": 6086, "Ġscooped": 6087, "Ġscattering": 6088, "Ġribbons": 6089, "Ġrescued": 6090, "Ġprec": 6091, "Ġpenguins": 6092, "Ġpears": 6093, "Ġpeppers": 6094, "Ġpatience": 6095, "Ġpassports": 6096, "Ġnails": 6097, "Ġmittens": 6098, "Ġmes": 6099, "Ġinstructions": 6100, "Ġhonk": 6101, "Ġhi": 6102, "Ġguys": 6103, "Ġflutter": 6104, "Ġflav": 6105, "Ġfascin": 6106, "Ġeight": 6107, "Ġdiving": 6108, "Ġdemanded": 6109, "Ġcushions": 6110, "Ġcones": 6111, "Ġcomple": 6112, "Ġcomm": 6113, "Ġcelebration": 6114, "Ġbringing": 6115, "Ġblows": 6116, "Ġblooming": 6117, "Ġbeads": 6118, "Ġbalanced": 6119, "Ġairplane": 6120, "Ġaccompl": 6121, "ĠLuke": 6122, "ĠLenny": 6123, "ĠJessie": 6124, "ĠFrog": 6125, "ĠFifi": 6126, "ĠEveryday": 6127, "ĠDr": 6128, "ĠBlink": 6129, "ĠAlly": 6130, "zie": 6131, "ults": 6132, "uctantly": 6133, "lets": 6134, "lict": 6135, "iggy": 6136, "die": 6137, "big": 6138, "Zoomy": 6139, "Uh": 6140, "Our": 6141, "Luna": 6142, "Jake": 6143, "Have": 6144, "Fo": 6145, "First": 6146, "Bad": 6147, "Achoo": 6148, "Ġwizard": 6149, "Ġvisiting": 6150, "Ġvillag": 6151, "Ġusual": 6152, "Ġuntie": 6153, "Ġunf": 6154, "Ġtodd": 6155, "Ġstarfish": 6156, "Ġscales": 6157, "Ġsadness": 6158, "Ġreminder": 6159, "Ġrefre": 6160, "Ġpurred": 6161, "Ġprotecting": 6162, "Ġprotected": 6163, "Ġpause": 6164, "Ġorganizing": 6165, "Ġofficer": 6166, "Ġoat": 6167, "Ġmission": 6168, "Ġlearns": 6169, "Ġlaying": 6170, "Ġhomework": 6171, "Ġgoodnight": 6172, "Ġfroze": 6173, "Ġexplorers": 6174, "Ġexamined": 6175, "Ġdrives": 6176, "Ġconflict": 6177, "Ġbaker": 6178, "Ġbackward": 6179, "Ġboo": 6180, "Ġapplauded": 6181, "Ġapologize": 6182, "ĠMuffin": 6183, "ĠLeave": 6184, "ĠGogo": 6185, "ĠFriends": 6186, "ĠBehind": 6187, "step": 6188, "rance": 6189, "ords": 6190, "jo": 6191, "iders": 6192, "ern": 6193, "bigail": 6194, "bbled": 6195, "bl": 6196, "arter": 6197, "actly": 6198, "aa": 6199, "Tweet": 6200, "Somet": 6201, "Ġyesterday": 6202, "Ġwins": 6203, "Ġwhatever": 6204, "Ġwound": 6205, "Ġvictory": 6206, "Ġtoddler": 6207, "Ġstruck": 6208, "Ġspikes": 6209, "Ġspells": 6210, "Ġsmiley": 6211, "Ġsmallest": 6212, "Ġsmarter": 6213, "Ġshivered": 6214, "Ġrides": 6215, "Ġreleased": 6216, "Ġreluctantly": 6217, "Ġrecording": 6218, "Ġprettier": 6219, "Ġplanets": 6220, "Ġpastels": 6221, "Ġmuscle": 6222, "Ġleading": 6223, "Ġhelpers": 6224, "Ġguns": 6225, "Ġfirefight": 6226, "Ġfigures": 6227, "Ġdragged": 6228, "Ġdipped": 6229, "Ġcracked": 6230, "Ġchanging": 6231, "Ġcause": 6232, "Ġbarely": 6233, "ĠYesterday": 6234, "ĠThomas": 6235, "ĠPippa": 6236, "ĠPepper": 6237, "ĠMoo": 6238, "ĠLove": 6239, "ĠJessica": 6240, "ĠJenna": 6241, "ĠHopper": 6242, "ĠGreen": 6243, "ĠGr": 6244, "ĠGet": 6245, "ĠElephant": 6246, "ĠChloe": 6247, "ĠBeep": 6248, "ĠAm": 6249, "ĠQ": 6250, "nies": 6251, "jamas": 6252, "ho": 6253, "anna": 6254, "Teddy": 6255, "Ste": 6256, "Silly": 6257, "Millie": 6258, "Jerry": 6259, "Grandpa": 6260, "An": 6261, "Ġwarnings": 6262, "Ġvent": 6263, "Ġunited": 6264, "Ġsunlight": 6265, "Ġstole": 6266, "Ġstern": 6267, "Ġsprinkles": 6268, "Ġshirts": 6269, "Ġrockets": 6270, "Ġreply": 6271, "Ġrings": 6272, "Ġprecious": 6273, "Ġpacking": 6274, "Ġinviting": 6275, "Ġhugging": 6276, "Ġfiremen": 6277, "Ġexactly": 6278, "Ġdelivering": 6279, "Ġdie": 6280, "Ġdam": 6281, "Ġcovers": 6282, "Ġclick": 6283, "Ġcous": 6284, "Ġbuzzing": 6285, "Ġbowls": 6286, "Ġbehavi": 6287, "Ġbecoming": 6288, "Ġbank": 6289, "Ġanytime": 6290, "Ġannoy": 6291, "ĠSquirrel": 6292, "ĠSure": 6293, "ĠRobert": 6294, "ĠRollie": 6295, "ĠRabbit": 6296, "ĠPrincess": 6297, "ĠMeg": 6298, "ĠMarie": 6299, "ĠHippy": 6300, "ĠGir": 6301, "ĠChew": 6302, "ĠBetsy": 6303, "ueen": 6304, "uly": 6305, "rink": 6306, "irm": 6307, "iding": 6308, "guing": 6309, "fied": 6310, "eah": 6311, "bly": 6312, "Unfortunately": 6313, "Su": 6314, "Oops": 6315, "Milly": 6316, "Ah": 6317, "Ġwraps": 6318, "Ġwiggled": 6319, "Ġwhose": 6320, "Ġweren": 6321, "Ġwid": 6322, "Ġvillagers": 6323, "Ġvines": 6324, "Ġtickets": 6325, "Ġsports": 6326, "Ġsparkles": 6327, "Ġsnowballs": 6328, "Ġsituation": 6329, "Ġseparated": 6330, "Ġsending": 6331, "Ġsense": 6332, "Ġrefle": 6333, "Ġquarreling": 6334, "Ġprincesses": 6335, "Ġpossible": 6336, "Ġpeered": 6337, "Ġpeas": 6338, "Ġpajamas": 6339, "Ġpins": 6340, "Ġmisses": 6341, "Ġmasks": 6342, "Ġjoked": 6343, "Ġintroduc": 6344, "Ġgotten": 6345, "Ġfault": 6346, "Ġcuddle": 6347, "Ġcomplained": 6348, "Ġcocoon": 6349, "Ġchips": 6350, "Ġarrive": 6351, "Ġarguing": 6352, "Ġactivities": 6353, "ĠUnfortunately": 6354, "ĠTurtle": 6355, "ĠTop": 6356, "ĠStar": 6357, "ĠRobo": 6358, "ĠQueen": 6359, "ĠPo": 6360, "ĠJoy": 6361, "ĠJilly": 6362, "ĠHor": 6363, "ĠDara": 6364, "ĠBuggy": 6365, "ĠBy": 6366, "ĠBecause": 6367, "rey": 6368, "dam": 6369, "cuse": 6370, "bric": 6371, "atches": 6372, "anie": 6373, "Ru": 6374, "Or": 6375, "Mar": 6376, "Mandy": 6377, "Lilly": 6378, "Dave": 6379, "Buzz": 6380, "Ġyells": 6381, "Ġwidened": 6382, "Ġwoof": 6383, "Ġtwirl": 6384, "Ġtricky": 6385, "Ġtravell": 6386, "Ġtractor": 6387, "Ġtruly": 6388, "Ġthro": 6389, "Ġteased": 6390, "Ġsuperheroes": 6391, "Ġstartled": 6392, "Ġspins": 6393, "Ġspiders": 6394, "Ġsomebody": 6395, "Ġsnatched": 6396, "Ġscarves": 6397, "Ġsides": 6398, "Ġrequested": 6399, "Ġrainbows": 6400, "Ġproperly": 6401, "Ġpowers": 6402, "Ġpockets": 6403, "Ġplenty": 6404, "Ġperched": 6405, "Ġpaths": 6406, "Ġpout": 6407, "Ġnaps": 6408, "Ġmotion": 6409, "Ġmailed": 6410, "Ġknocks": 6411, "Ġkicks": 6412, "Ġitems": 6413, "Ġitchy": 6414, "Ġincreased": 6415, "Ġimproved": 6416, "Ġhus": 6417, "Ġgrowling": 6418, "Ġgroups": 6419, "Ġgreet": 6420, "Ġgrandmother": 6421, "Ġgri": 6422, "Ġforgiving": 6423, "Ġforehead": 6424, "Ġfascinated": 6425, "Ġfarther": 6426, "Ġfabric": 6427, "Ġfirm": 6428, "Ġdiscovering": 6429, "Ġcuriosity": 6430, "Ġcuddly": 6431, "Ġcompleted": 6432, "Ġchoices": 6433, "Ġchirping": 6434, "Ġcaused": 6435, "Ġbrand": 6436, "Ġbounces": 6437, "Ġblocking": 6438, "Ġbiting": 6439, "Ġbells": 6440, "Ġbelly": 6441, "ĠZipper": 6442, "ĠWant": 6443, "ĠTara": 6444, "ĠStay": 6445, "ĠSnowman": 6446, "ĠLena": 6447, "ĠHoot": 6448, "ĠGiraffe": 6449, "ĠFoxy": 6450, "ĠFishy": 6451, "ĠEn": 6452, "ĠChess": 6453, "ĠBarry": 6454, "vin": 6455, "uture": 6456, "though": 6457, "steps": 6458, "seek": 6459, "inkle": 6460, "ining": 6461, "eff": 6462, "anes": 6463, "aker": 6464, "Yeah": 6465, "Sometimes": 6466, "Pe": 6467, "Listen": 6468, "Hold": 6469, "Excuse": 6470, "Charlie": 6471, "Ġworries": 6472, "Ġusually": 6473, "Ġtunnels": 6474, "Ġthroat": 6475, "Ġswoop": 6476, "Ġswit": 6477, "Ġstands": 6478, "Ġsobbed": 6479, "Ġsoaring": 6480, "Ġshrinking": 6481, "Ġrocking": 6482, "Ġrip": 6483, "Ġrewarded": 6484, "Ġreaching": 6485, "Ġpromises": 6486, "Ġpops": 6487, "Ġpoliceman": 6488, "Ġpolar": 6489, "Ġpointy": 6490, "Ġobserved": 6491, "Ġneither": 6492, "Ġnine": 6493, "Ġlistens": 6494, "Ġimages": 6495, "Ġhonked": 6496, "Ġhandful": 6497, "Ġhallway": 6498, "Ġgiggling": 6499, "Ġfolding": 6500, "Ġfuture": 6501, "Ġdirection": 6502, "Ġdived": 6503, "Ġdar": 6504, "Ġcurtains": 6505, "Ġcreating": 6506, "Ġchases": 6507, "Ġbuzzed": 6508, "Ġbehaving": 6509, "Ġbur": 6510, "ĠWoo": 6511, "ĠUncle": 6512, "ĠTruck": 6513, "ĠSparkle": 6514, "ĠShadow": 6515, "ĠSay": 6516, "ĠPrince": 6517, "ĠPut": 6518, "ĠPatch": 6519, "ĠOak": 6520, "ĠHolly": 6521, "ĠBrownie": 6522, "âĢĶ": 6523, "yond": 6524, "ustom": 6525, "urried": 6526, "une": 6527, "tuce": 6528, "onge": 6529, "nk": 6530, "lowers": 6531, "lay": 6532, "iggie": 6533, "ido": 6534, "eds": 6535, "cakes": 6536, "blings": 6537, "bie": 6538, "ason": 6539, "angled": 6540, "abella": 6541, "Sunny": 6542, "Quack": 6543, "Maggie": 6544, "Henry": 6545, "Car": 6546, "==": 6547, "Ġwhispers": 6548, "Ġvanilla": 6549, "Ġuntied": 6550, "Ġunp": 6551, "Ġtasks": 6552, "Ġsuffered": 6553, "Ġstays": 6554, "Ġstaring": 6555, "Ġsponge": 6556, "Ġsiblings": 6557, "Ġseesaw": 6558, "Ġscurried": 6559, "Ġsank": 6560, "Ġrepa": 6561, "Ġpretends": 6562, "Ġnoses": 6563, "Ġnests": 6564, "Ġnapkins": 6565, "Ġmovies": 6566, "Ġlettuce": 6567, "Ġleaning": 6568, "Ġlap": 6569, "Ġinterested": 6570, "Ġhusband": 6571, "Ġgrowls": 6572, "Ġgrows": 6573, "Ġgasp": 6574, "Ġgross": 6575, "Ġfirefly": 6576, "Ġeveryday": 6577, "Ġdropping": 6578, "Ġdeserve": 6579, "Ġdent": 6580, "Ġcorners": 6581, "Ġcontro": 6582, "Ġcompletely": 6583, "Ġchuck": 6584, "Ġchop": 6585, "Ġcelebrating": 6586, "Ġcans": 6587, "Ġcustom": 6588, "Ġcent": 6589, "Ġbracelets": 6590, "Ġbodies": 6591, "Ġbeyond": 6592, "Ġbasement": 6593, "Ġavo": 6594, "Ġagrees": 6595, "Ġast": 6596, "ĠOlly": 6597, "ĠNothing": 6598, "ĠMouse": 6599, "ĠHowever": 6600, "ĠGina": 6601, "ĠFor": 6602, "ĠBirdie": 6603, "utty": 6604, "uzzy": 6605, "pite": 6606, "ounce": 6607, "ooed": 6608, "joyed": 6609, "itely": 6610, "iley": 6611, "eed": 6612, "awn": 6613, "Whee": 6614, "Very": 6615, "Those": 6616, "Susie": 6617, "Run": 6618, "Lola": 6619, "Doggy": 6620, "Chirpy": 6621, "Bunny": 6622, "Big": 6623, "?'": 6624, "Ġyum": 6625, "Ġwobbly": 6626, "Ġwishing": 6627, "Ġventured": 6628, "Ġvowed": 6629, "Ġtickled": 6630, "Ġtearing": 6631, "Ġsweets": 6632, "Ġsurface": 6633, "Ġsupplies": 6634, "Ġsquares": 6635, "Ġsquishy": 6636, "Ġspreading": 6637, "Ġspeaking": 6638, "Ġslam": 6639, "Ġsinger": 6640, "Ġsails": 6641, "Ġreplaced": 6642, "Ġrepaired": 6643, "Ġreads": 6644, "Ġranger": 6645, "Ġpumpkins": 6646, "Ġpracticing": 6647, "Ġpotion": 6648, "Ġpeeking": 6649, "Ġpatted": 6650, "Ġpartic": 6651, "Ġmerry": 6652, "Ġlosing": 6653, "Ġkeys": 6654, "Ġhowever": 6655, "Ġfact": 6656, "Ġdots": 6657, "Ġdollar": 6658, "Ġconfident": 6659, "Ġbravery": 6660, "Ġbatteries": 6661, "Ġbackwards": 6662, "Ġaccomplish": 6663, "ĠWhist": 6664, "ĠWink": 6665, "ĠTwinkle": 6666, "ĠSofia": 6667, "ĠPup": 6668, "ĠPine": 6669, "ĠPam": 6670, "ĠOur": 6671, "ĠNice": 6672, "ĠMix": 6673, "ĠJulie": 6674, "ĠJolly": 6675, "ĠHorsy": 6676, "ĠEx": 6677, "ĠCrab": 6678, "ĠCow": 6679, "ĠĊĠ": 6680, "usted": 6681, "order": 6682, "ivi": 6683, "fly": 6684, "father": 6685, "eal": 6686, "ctions": 6687, "cl": 6688, "Yummy": 6689, "Spike": 6690, "Some": 6691, "Ruby": 6692, "Pipp": 6693, "Mine": 6694, "Lulu": 6695, "Le": 6696, "Great": 6697, "Fine": 6698, "?\",": 6699, "Ġworkers": 6700, "Ġwires": 6701, "Ġwandering": 6702, "Ġuses": 6703, "Ġunpacked": 6704, "Ġtwinkling": 6705, "Ġstudent": 6706, "Ġstroked": 6707, "Ġsteady": 6708, "Ġstem": 6709, "Ġstain": 6710, "Ġsprang": 6711, "Ġsofter": 6712, "Ġsnowmen": 6713, "Ġshorts": 6714, "Ġscratches": 6715, "Ġsatis": 6716, "Ġrotting": 6717, "Ġrolls": 6718, "Ġroses": 6719, "Ġripe": 6720, "Ġrefreshed": 6721, "Ġreflection": 6722, "Ġrisk": 6723, "Ġpouring": 6724, "Ġposter": 6725, "Ġplayers": 6726, "Ġplanning": 6727, "Ġpaddle": 6728, "Ġpadd": 6729, "Ġpec": 6730, "Ġoutdo": 6731, "Ġnecklaces": 6732, "Ġni": 6733, "Ġmommies": 6734, "Ġminerals": 6735, "Ġmarked": 6736, "Ġlighter": 6737, "Ġknees": 6738, "Ġguests": 6739, "Ġgrip": 6740, "Ġfootsteps": 6741, "Ġflames": 6742, "Ġfirefighters": 6743, "Ġfilling": 6744, "Ġentrance": 6745, "Ġentire": 6746, "Ġdolphins": 6747, "Ġdentist": 6748, "Ġdecorating": 6749, "Ġdeal": 6750, "Ġcounts": 6751, "Ġcompetition": 6752, "Ġcomforted": 6753, "Ġchefs": 6754, "Ġchoo": 6755, "Ġcalmed": 6756, "Ġaside": 6757, "Ġarrows": 6758, "ĠWithout": 6759, "ĠSuzie": 6760, "ĠSorry": 6761, "ĠSl": 6762, "ĠPaws": 6763, "ĠOl": 6764, "ĠNick": 6765, "ĠMonster": 6766, "ĠFit": 6767, "ĠEnjoy": 6768, "ĠBirthday": 6769, "ĠBiggie": 6770, "zes": 6771, "xie": 6772, "vroom": 6773, "umbling": 6774, "uri": 6775, "sty": 6776, "sequ": 6777, "sequence": 6778, "rixie": 6779, "oline": 6780, "ledge": 6781, "iles": 6782, "hausted": 6783, "ercy": 6784, "ently": 6785, "ela": 6786, "brush": 6787, "aye": 6788, "ampoline": 6789, "alph": 6790, "Zoom": 6791, "Take": 6792, "Steve": 6793, "Sn": 6794, "Roar": 6795, "Out": 6796, "Mike": 6797, "Luckily": 6798, "Lizzy": 6799, "Katie": 6800, "Get": 6801, "Follow": 6802, "Ellie": 6803, "Dolly": 6804, "Bear": 6805, "Annie": 6806, "Ġwinked": 6807, "Ġwatering": 6808, "Ġwaiter": 6809, "Ġwow": 6810, "Ġtrampoline": 6811, "Ġtowels": 6812, "Ġtouches": 6813, "Ġthird": 6814, "Ġtiss": 6815, "Ġtangled": 6816, "Ġsurfing": 6817, "Ġsupported": 6818, "Ġstrongest": 6819, "Ġsteer": 6820, "Ġstool": 6821, "Ġsingle": 6822, "Ġsigned": 6823, "Ġshovels": 6824, "Ġshelves": 6825, "Ġseeker": 6826, "Ġrespons": 6827, "Ġremembering": 6828, "Ġrelief": 6829, "Ġrecorder": 6830, "Ġrising": 6831, "Ġprayer": 6832, "Ġpiggy": 6833, "Ġperformed": 6834, "Ġpastries": 6835, "Ġpassing": 6836, "Ġoverjoyed": 6837, "Ġoutdoors": 6838, "Ġopp": 6839, "Ġnotes": 6840, "Ġmood": 6841, "Ġlollipops": 6842, "Ġlicking": 6843, "Ġleast": 6844, "Ġknowledge": 6845, "Ġincluded": 6846, "Ġhider": 6847, "Ġheav": 6848, "Ġflavor": 6849, "Ġflapping": 6850, "Ġelbow": 6851, "Ġdrums": 6852, "Ġdesert": 6853, "Ġconsequence": 6854, "Ġconn": 6855, "Ġcloses": 6856, "Ġchuckled": 6857, "Ġcheeks": 6858, "Ġchat": 6859, "Ġburns": 6860, "Ġbegin": 6861, "Ġbeam": 6862, "Ġbathing": 6863, "Ġbunch": 6864, "ĠZee": 6865, "ĠYawn": 6866, "ĠTweetie": 6867, "ĠStella": 6868, "ĠSw": 6869, "ĠPu": 6870, "ĠJojo": 6871, "ĠJeff": 6872, "ĠHur": 6873, "ĠGoodbye": 6874, "ĠDizzy": 6875, "ĠBrian": 6876, "ĠBook": 6877, "ĠAnne": 6878, "ĠAunt": 6879, "ĠAbigail": 6880, "ĠĠ": 6881, "urtles": 6882, "urious": 6883, "ths": 6884, "rrr": 6885, "romise": 6886, "ossible": 6887, "no": 6888, "isions": 6889, "inny": 6890, "icha": 6891, "ichael": 6892, "fall": 6893, "een": 6894, "bert": 6895, "autious": 6896, "Rose": 6897, "Penny": 6898, "May": 6899, "Jump": 6900, "Harry": 6901, "Danny": 6902, "Ġwipes": 6903, "Ġwhistles": 6904, "Ġtwirling": 6905, "Ġtoaster": 6906, "Ġthorn": 6907, "Ġtables": 6908, "Ġturtles": 6909, "Ġswooped": 6910, "Ġswords": 6911, "Ġsurroundings": 6912, "Ġstew": 6913, "Ġsqueaked": 6914, "Ġspat": 6915, "Ġsneezing": 6916, "Ġships": 6917, "Ġsewed": 6918, "Ġsale": 6919, "Ġrocked": 6920, "Ġrains": 6921, "Ġrusty": 6922, "Ġrumble": 6923, "Ġprayers": 6924, "Ġparticular": 6925, "Ġornaments": 6926, "Ġmushrooms": 6927, "Ġminded": 6928, "Ġmatters": 6929, "Ġmachines": 6930, "Ġloading": 6931, "Ġkittens": 6932, "Ġjoining": 6933, "Ġintroduced": 6934, "Ġinstrum": 6935, "Ġimpossible": 6936, "Ġhumans": 6937, "Ġhesitated": 6938, "Ġforgiven": 6939, "Ġfits": 6940, "Ġfairies": 6941, "Ġexhausted": 6942, "Ġends": 6943, "Ġdecisions": 6944, "Ġdarkness": 6945, "Ġdarling": 6946, "Ġdancers": 6947, "Ġcousin": 6948, "Ġcontrol": 6949, "Ġconsequences": 6950, "Ġbru": 6951, "Ġblown": 6952, "Ġbaths": 6953, "Ġbars": 6954, "Ġbackpacks": 6955, "Ġadding": 6956, "Ġachieve": 6957, "Ġaimed": 6958, "Ġaff": 6959, "ĠZiggy": 6960, "ĠVivi": 6961, "ĠSofty": 6962, "ĠSc": 6963, "ĠReg": 6964, "ĠPh": 6965, "ĠOxy": 6966, "ĠNutty": 6967, "ĠLau": 6968, "ĠKaylee": 6969, "ĠJones": 6970, "ĠJanie": 6971, "ĠJamie": 6972, "ĠHurricane": 6973, "ĠFido": 6974, "ĠBeth": 6975, "ĠBelle": 6976, "Ġ10": 6977, "Ġicing": 6978, "you": 6979, "ters": 6980, "sm": 6981, "shing": 6982, "oke": 6983, "ody": 6984, "ndy": 6985, "neath": 6986, "lle": 6987, "hi": 6988, "gers": 6989, "ept": 6990, "eese": 6991, "dding": 6992, "chy": 6993, "ces": 6994, "cited": 6995, "cie": 6996, "alloween": 6997, "ading": 6998, "ades": 6999, "abel": 7000, "Grace": 7001, "Co": 7002, "Beep": 7003, "Bet": 7004, "Baby": 7005, "Alex": 7006, "Ġyourselves": 7007, "Ġwrist": 7008, "Ġwee": 7009, "Ġwakes": 7010, "Ġuns": 7011, "Ġund": 7012, "Ġtwisting": 7013, "Ġtighter": 7014, "Ġtested": 7015, "Ġtalents": 7016, "Ġswimmer": 7017, "Ġstung": 7018, "Ġstumble": 7019, "Ġsparks": 7020, "Ġslowed": 7021, "Ġslammed": 7022, "Ġskirts": 7023, "Ġsewing": 7024, "Ġsalty": 7025, "Ġrobber": 7026, "Ġregretted": 7027, "Ġprick": 7028, "Ġnodding": 7029, "Ġneare": 7030, "Ġnuzz": 7031, "Ġmesmer": 7032, "Ġloops": 7033, "Ġlending": 7034, "Ġjackets": 7035, "Ġheavier": 7036, "Ġhealth": 7037, "Ġheading": 7038, "Ġguide": 7039, "Ġgrandfather": 7040, "Ġgracefully": 7041, "Ġgobbled": 7042, "Ġghosts": 7043, "Ġgoo": 7044, "Ġgeese": 7045, "Ġfrowning": 7046, "Ġforks": 7047, "Ġforgets": 7048, "Ġfever": 7049, "Ġfart": 7050, "Ġerase": 7051, "Ġdoctors": 7052, "Ġdirections": 7053, "Ġdetermination": 7054, "Ġcurly": 7055, "Ġcrumb": 7056, "Ġclowns": 7057, "Ġcarts": 7058, "Ġbumps": 7059, "Ġangels": 7060, "Ġaloud": 7061, "ĠWo": 7062, "ĠToot": 7063, "ĠThose": 7064, "ĠToys": 7065, "ĠSpirit": 7066, "ĠShiver": 7067, "ĠSadly": 7068, "ĠRudy": 7069, "ĠPink": 7070, "ĠOther": 7071, "ĠMill": 7072, "ĠMild": 7073, "ĠMam": 7074, "ĠLiam": 7075, "ĠJennie": 7076, "ĠJacky": 7077, "ĠJu": 7078, "ĠFaye": 7079, "ĠDina": 7080, "ronaut": 7081, "reverse": 7082, "oosh": 7083, "iversity": 7084, "its": 7085, "iggles": 7086, "iel": 7087, "Vroom": 7088, "Shrink": 7089, "Sad": 7090, "Lina": 7091, "Kim": 7092, "Keep": 7093, "For": 7094, "Even": 7095, "Elly": 7096, "...": 7097, ".'\"": 7098, "--": 7099, "Ġyielded": 7100, "Ġwarmer": 7101, "Ġvideos": 7102, "Ġunderneath": 7103, "Ġtweet": 7104, "Ġtissue": 7105, "Ġswitched": 7106, "Ġsweaty": 7107, "Ġswept": 7108, "Ġsunscreen": 7109, "Ġstroll": 7110, "Ġsolut": 7111, "Ġsnuck": 7112, "Ġslipping": 7113, "Ġskunk": 7114, "Ġself": 7115, "Ġsy": 7116, "Ġruining": 7117, "Ġrubs": 7118, "Ġrows": 7119, "Ġpos": 7120, "Ġpleaded": 7121, "Ġperforming": 7122, "Ġpecked": 7123, "Ġpaintbrush": 7124, "Ġoutf": 7125, "Ġobjects": 7126, "Ġmodels": 7127, "Ġmagpie": 7128, "Ġmater": 7129, "Ġloses": 7130, "Ġlies": 7131, "Ġleap": 7132, "Ġinsects": 7133, "Ġhopeful": 7134, "Ġhonesty": 7135, "Ġhides": 7136, "Ġglued": 7137, "Ġfrowns": 7138, "Ġfleas": 7139, "Ġfeast": 7140, "Ġfarthest": 7141, "Ġev": 7142, "Ġdonkey": 7143, "Ġdollhouse": 7144, "Ġdisob": 7145, "Ġden": 7146, "Ġcustomer": 7147, "Ġcrumbs": 7148, "Ġcountryside": 7149, "Ġcombed": 7150, "Ġcobwebs": 7151, "Ġcor": 7152, "Ġcautious": 7153, "Ġbreathed": 7154, "Ġbadge": 7155, "Ġbun": 7156, "Ġbumpy": 7157, "Ġavoid": 7158, "Ġastronaut": 7159, "Ġannoyed": 7160, "Ġamong": 7161, "Ġactive": 7162, "ĠZero": 7163, "ĠTrust": 7164, "ĠThanks": 7165, "ĠTry": 7166, "ĠTippy": 7167, "ĠTe": 7168, "ĠSuki": 7169, "ĠStarry": 7170, "ĠSadie": 7171, "ĠSe": 7172, "ĠMatch": 7173, "ĠLina": 7174, "ĠJon": 7175, "ĠFrosty": 7176, "ĠFle": 7177, "ĠDidi": 7178, "ĠCro": 7179, "uren": 7180, "ulpture": 7181, "rup": 7182, "rops": 7183, "rin": 7184, "piece": 7185, "oring": 7186, "llen": 7187, "iolet": 7188, "indrops": 7189, "ilo": 7190, "igers": 7191, "elia": 7192, "ddie": 7193, "cept": 7194, "cc": 7195, "bbie": 7196, "arac": 7197, "ans": 7198, "aned": 7199, "addie": 7200, "auren": 7201, "Pippin": 7202, "Put": 7203, "Lena": 7204, "Gina": 7205, "Clara": 7206, "Che": 7207, "Betty": 7208, "Buzzy": 7209, "Boys": 7210, "Bow": 7211, "Ġzooms": 7212, "Ġvisitors": 7213, "Ġunsure": 7214, "Ġunw": 7215, "Ġtrusting": 7216, "Ġtreehouse": 7217, "Ġtipto": 7218, "Ġtalented": 7219, "Ġtipped": 7220, "Ġtigers": 7221, "Ġstuffing": 7222, "Ġsqueezing": 7223, "Ġspits": 7224, "Ġslower": 7225, "Ġslither": 7226, "Ġshown": 7227, "Ġscrub": 7228, "Ġsculpture": 7229, "Ġscra": 7230, "Ġsway": 7231, "Ġsens": 7232, "Ġresponsible": 7233, "Ġreminds": 7234, "Ġrever": 7235, "Ġreason": 7236, "Ġrainy": 7237, "Ġraindrops": 7238, "Ġrather": 7239, "Ġpurr": 7240, "Ġprinting": 7241, "Ġprickly": 7242, "Ġprevented": 7243, "Ġplanting": 7244, "Ġplain": 7245, "Ġocc": 7246, "Ġmateri": 7247, "Ġmasterpiece": 7248, "Ġmarkers": 7249, "Ġmunch": 7250, "Ġloudest": 7251, "Ġleads": 7252, "Ġknocking": 7253, "Ġjoins": 7254, "Ġincluding": 7255, "Ġimagining": 7256, "Ġignoring": 7257, "Ġhalves": 7258, "Ġgazing": 7259, "Ġflight": 7260, "Ġfans": 7261, "Ġearn": 7262, "Ġdragonfly": 7263, "Ġdod": 7264, "Ġdesigned": 7265, "Ġdef": 7266, "Ġdamage": 7267, "Ġcuriously": 7268, "Ġcreams": 7269, "Ġcharac": 7270, "Ġcash": 7271, "Ġbuying": 7272, "Ġblinking": 7273, "Ġbacked": 7274, "Ġashes": 7275, "Ġanger": 7276, "Ġage": 7277, "Ġafterwards": 7278, "Ġadults": 7279, "Ġache": 7280, "Ġaud": 7281, "ĠWhistle": 7282, "ĠWiggles": 7283, "ĠTam": 7284, "ĠPercy": 7285, "ĠPen": 7286, "ĠMegan": 7287, "ĠMother": 7288, "ĠMint": 7289, "ĠListen": 7290, "ĠLaser": 7291, "ĠHold": 7292, "ĠHalloween": 7293, "ĠDavey": 7294, "ĠDay": 7295, "ĠChick": 7296, "ĠCandy": 7297, "ĠBally": 7298, "ĠBall": 7299, "ĠBaa": 7300, "ĠAlong": 7301, "ĠAdam": 7302, "ĠĊĊ": 7303, "wise": 7304, "using": 7305, "uno": 7306, "umph": 7307, "uggles": 7308, "uing": 7309, "ude": 7310, "pecting": 7311, "pit": 7312, "osite": 7313, "ohny": 7314, "obody": 7315, "laying": 7316, "len": 7317, "itude": 7318, "ition": 7319, "itches": 7320, "issa": 7321, "ira": 7322, "inda": 7323, "iliar": 7324, "found": 7325, "endy": 7326, "ching": 7327, "ceries": 7328, "aren": 7329, "ampion": 7330, "amiliar": 7331, "aled": 7332, "achel": 7333, "Under": 7334, "Tina": 7335, "Suzy": 7336, "Pat": 7337, "Pandy": 7338, "Kate": 7339, "Joey": 7340, "Julie": 7341, "Jazz": 7342, "Hurry": 7343, "Fro": 7344, "David": 7345, "Dan": 7346, "Cindy": 7347, "Always": 7348, "'.\"": 7349, "!âĢĿ.": 7350, "Ġwounds": 7351, "Ġwobbled": 7352, "Ġwiping": 7353, "Ġwealth": 7354, "Ġunwra": 7355, "Ġunfamiliar": 7356, "Ġtwists": 7357, "Ġtwinkled": 7358, "Ġtwice": 7359, "Ġtravelled": 7360, "Ġtossed": 7361, "Ġtires": 7362, "Ġtemper": 7363, "Ġtasting": 7364, "Ġtalks": 7365, "Ġting": 7366, "Ġtin": 7367, "Ġtid": 7368, "Ġsurprising": 7369, "Ġsurfboard": 7370, "Ġstopping": 7371, "Ġstolen": 7372, "Ġsource": 7373, "Ġsolution": 7374, "Ġsolving": 7375, "Ġsoaking": 7376, "Ġsatisfied": 7377, "Ġsill": 7378, "Ġrubbing": 7379, "Ġreversed": 7380, "Ġreminding": 7381, "Ġrecommended": 7382, "Ġrails": 7383, "Ġpresses": 7384, "Ġpleasure": 7385, "Ġplucked": 7386, "Ġpapa": 7387, "Ġpaddled": 7388, "Ġoysters": 7389, "Ġovercome": 7390, "Ġopposite": 7391, "Ġoccas": 7392, "Ġnearest": 7393, "Ġmooed": 7394, "Ġmiles": 7395, "Ġmaker": 7396, "Ġlifting": 7397, "Ġlower": 7398, "Ġjourneys": 7399, "Ġindeed": 7400, "Ġinsp": 7401, "Ġgroceries": 7402, "Ġform": 7403, "Ġfluttered": 7404, "Ġflipped": 7405, "Ġfirmly": 7406, "Ġfins": 7407, "Ġfreed": 7408, "Ġeverybody": 7409, "Ġevil": 7410, "Ġduckling": 7411, "Ġdrivers": 7412, "Ġcolored": 7413, "Ġcolder": 7414, "Ġcheers": 7415, "Ġchampion": 7416, "Ġcaterpillars": 7417, "Ġcamping": 7418, "Ġcott": 7419, "Ġbunnies": 7420, "Ġbuses": 7421, "Ġbrushing": 7422, "Ġbows": 7423, "Ġbottles": 7424, "Ġbehaviour": 7425, "Ġbandages": 7426, "Ġaudience": 7427, "Ġamount": 7428, "Ġadult": 7429, "Ġaccomplishment": 7430, "Ġabil": 7431, "ĠWoolly": 7432, "ĠWeapon": 7433, "ĠWake": 7434, "ĠUp": 7435, "ĠTrixie": 7436, "ĠTia": 7437, "ĠSnuggles": 7438, "ĠSnap": 7439, "ĠShake": 7440, "ĠOliver": 7441, "ĠNear": 7442, "ĠIndy": 7443, "ĠGracie": 7444, "ĠGray": 7445, "ĠElle": 7446, "ĠEd": 7447, "ĠBruno": 7448, "ĠBluey": 7449, "ĠBark": 7450, "what": 7451, "woo": 7452, "vers": 7453, "urr": 7454, "uess": 7455, "son": 7456, "ptop": 7457, "owny": 7458, "osen": 7459, "ngela": 7460, "lsa": 7461, "kend": 7462, "kelly": 7463, "itted": 7464, "ighing": 7465, "idey": 7466, "ici": 7467, "ibb": 7468, "ibbit": 7469, "hopper": 7470, "feree": 7471, "erm": 7472, "cky": 7473, "chievous": 7474, "cho": 7475, "cher": 7476, "but": 7477, "ashes": 7478, "amb": 7479, "allowed": 7480, "aling": 7481, "ably": 7482, "Thomas": 7483, "Toby": 7484, "Ribbit": 7485, "People": 7486, "Op": 7487, "Nick": 7488, "Liz": 7489, "Josh": 7490, "Jessie": 7491, "Guess": 7492, "Days": 7493, "Br": 7494, "Bill": 7495, "Bang": 7496, "Alright": 7497, "Afterwards": 7498, "Aunt": 7499, "Am": 7500, "Abby": 7501, "?!\"": 7502, "!âĢĻ": 7503, "Ġyounger": 7504, "Ġyelp": 7505, "Ġwritten": 7506, "Ġwithin": 7507, "Ġweekend": 7508, "Ġwasting": 7509, "Ġtubes": 7510, "Ġtroubles": 7511, "Ġtrembled": 7512, "Ġtops": 7513, "Ġthrown": 7514, "Ġtaped": 7515, "Ġtapping": 7516, "Ġty": 7517, "Ġswimsuit": 7518, "Ġswap": 7519, "Ġswallowed": 7520, "Ġstroke": 7521, "Ġstrips": 7522, "Ġsqueak": 7523, "Ġspeeding": 7524, "Ġspice": 7525, "Ġsniffing": 7526, "Ġsharks": 7527, "Ġseasons": 7528, "Ġscored": 7529, "Ġrobots": 7530, "Ġrobin": 7531, "Ġresults": 7532, "Ġrespected": 7533, "Ġrepeats": 7534, "Ġrepeating": 7535, "Ġreferee": 7536, "Ġraccoon": 7537, "Ġrays": 7538, "Ġpunishment": 7539, "Ġpouted": 7540, "Ġplayroom": 7541, "Ġpigeons": 7542, "Ġpeacefully": 7543, "Ġparted": 7544, "Ġpancakes": 7545, "Ġonward": 7546, "Ġonions": 7547, "Ġnewfound": 7548, "Ġneatly": 7549, "Ġmischievous": 7550, "Ġlifts": 7551, "Ġlaptop": 7552, "Ġlump": 7553, "Ġinspired": 7554, "Ġinches": 7555, "Ġhealing": 7556, "Ġguardian": 7557, "Ġgrasshopper": 7558, "Ġgoalie": 7559, "Ġgardener": 7560, "Ġfriendships": 7561, "Ġforgetting": 7562, "Ġforce": 7563, "Ġflown": 7564, "Ġflock": 7565, "Ġflip": 7566, "Ġfigured": 7567, "Ġfamiliar": 7568, "Ġexplorer": 7569, "Ġencourag": 7570, "Ġefforts": 7571, "Ġecho": 7572, "Ġease": 7573, "Ġdripping": 7574, "Ġdrifted": 7575, "Ġdecision": 7576, "Ġdump": 7577, "Ġcorre": 7578, "Ġcoloured": 7579, "Ġcond": 7580, "Ġcircus": 7581, "Ġchosen": 7582, "Ġchar": 7583, "Ġcashier": 7584, "Ġborrowed": 7585, "Ġbelts": 7586, "Ġbecomes": 7587, "Ġbanged": 7588, "Ġbacks": 7589, "Ġautomobiles": 7590, "Ġapologised": 7591, "Ġaction": 7592, "ĠYet": 7593, "ĠYell": 7594, "ĠWendy": 7595, "ĠWelcome": 7596, "ĠTwo": 7597, "ĠTank": 7598, "ĠShow": 7599, "ĠSkelly": 7600, "ĠRuff": 7601, "ĠRa": 7602, "ĠPoor": 7603, "ĠPin": 7604, "ĠMichael": 7605, "ĠKe": 7606, "ĠJackie": 7607, "ĠIsabella": 7608, "ĠHook": 7609, "ĠFish": 7610, "ĠExcited": 7611, "ĠDusty": 7612, "ĠCopper": 7613, "ĠCla": 7614, "ĠCally": 7615, "ĠBrad": 7616, "ĠAcorn": 7617, "Ġouch": 7618, "thur": 7619, "the": 7620, "sess": 7621, "sa": 7622, "rier": 7623, "rick": 7624, "rthur": 7625, "rily": 7626, "orky": 7627, "opes": 7628, "ollen": 7629, "mates": 7630, "match": 7631, "ji": 7632, "imm": 7633, "igning": 7634, "hog": 7635, "hive": 7636, "form": 7637, "espite": 7638, "ening": 7639, "cope": 7640, "atur": 7641, "armer": 7642, "antern": 7643, "acles": 7644, "aver": 7645, "Zara": 7646, "Try": 7647, "Soup": 7648, "Like": 7649, "Jon": 7650, "Jamie": 7651, "Hop": 7652, "Coco": 7653, "Bessie": 7654, "Bee": 7655, "Barry": 7656, "Ġwrapping": 7657, "Ġwrink": 7658, "Ġwinners": 7659, "Ġwilling": 7660, "Ġwhimp": 7661, "Ġweighing": 7662, "Ġweeds": 7663, "Ġwaking": 7664, "Ġtot": 7665, "Ġtiptoed": 7666, "Ġthorns": 7667, "Ġteapot": 7668, "Ġswollen": 7669, "Ġstitches": 7670, "Ġspoonful": 7671, "Ġspills": 7672, "Ġspices": 7673, "Ġsniffs": 7674, "Ġsmelling": 7675, "Ġsmashed": 7676, "Ġshaped": 7677, "Ġshady": 7678, "Ġsensation": 7679, "Ġsecure": 7680, "Ġscen": 7681, "Ġsandpit": 7682, "Ġrect": 7683, "Ġrats": 7684, "Ġrust": 7685, "Ġqueens": 7686, "Ġpurpose": 7687, "Ġpurrs": 7688, "Ġpokes": 7689, "Ġplayhouse": 7690, "Ġplot": 7691, "Ġpatches": 7692, "Ġpackages": 7693, "Ġnuzzled": 7694, "Ġneedles": 7695, "Ġnapped": 7696, "Ġmoonlight": 7697, "Ġmiller": 7698, "Ġmesses": 7699, "Ġlowered": 7700, "Ġlizards": 7701, "Ġlibrarian": 7702, "Ġlanguages": 7703, "Ġlent": 7704, "Ġlantern": 7705, "Ġlamb": 7706, "Ġknots": 7707, "Ġjoyful": 7708, "Ġinvitations": 7709, "Ġhedgehog": 7710, "Ġheight": 7711, "Ġhaircuts": 7712, "Ġhoo": 7713, "Ġguessing": 7714, "Ġgroaned": 7715, "Ġgrabbing": 7716, "Ġfooled": 7717, "Ġenthusiasm": 7718, "Ġdresser": 7719, "Ġdrawn": 7720, "Ġdisobey": 7721, "Ġdesigns": 7722, "Ġcrossing": 7723, "Ġcracker": 7724, "Ġcraft": 7725, "Ġconnected": 7726, "Ġcons": 7727, "Ġcosy": 7728, "Ġcoach": 7729, "Ġcleaner": 7730, "Ġcautiously": 7731, "Ġcaw": 7732, "Ġbruises": 7733, "Ġbreathing": 7734, "Ġbothering": 7735, "Ġbothered": 7736, "Ġbellies": 7737, "Ġbehavior": 7738, "Ġbeginning": 7739, "Ġbeehive": 7740, "Ġbully": 7741, "Ġarrives": 7742, "Ġaim": 7743, "ĠYellow": 7744, "ĠWoof": 7745, "ĠWilly": 7746, "ĠTime": 7747, "ĠSteppy": 7748, "ĠStret": 7749, "ĠSmoke": 7750, "ĠRia": 7751, "ĠPuppy": 7752, "ĠPurr": 7753, "ĠPizza": 7754, "ĠPill": 7755, "ĠMamma": 7756, "ĠLuckily": 7757, "ĠLion": 7758, "ĠKayla": 7759, "ĠJay": 7760, "ĠIsn": 7761, "ĠForky": 7762, "ĠClaire": 7763, "ĠCloud": 7764, "ĠChr": 7765, "ĠCha": 7766, "ĠCD": 7767, "ĠBloom": 7768, "ĠBi": 7769, "ĠAlthough": 7770, "ĠApp": 7771, "ĠAbbie": 7772, "Ġ2": 7773, "zoom": 7774, "zi": 7775, "yes": 7776, "ushroom": 7777, "urrender": 7778, "ummies": 7779, "ulf": 7780, "that": 7781, "tock": 7782, "seed": 7783, "river": 7784, "rie": 7785, "rig": 7786, "ppies": 7787, "orter": 7788, "orking": 7789, "onies": 7790, "omb": 7791, "ley": 7792, "ldy": 7793, "izon": 7794, "ivity": 7795, "initely": 7796, "immer": 7797, "illed": 7798, "ighty": 7799, "iddy": 7800, "iving": 7801, "iky": 7802, "ibbles": 7803, "fus": 7804, "ertain": 7805, "eling": 7806, "ears": 7807, "ezi": 7808, "byes": 7809, "beep": 7810, "ba": 7811, "aterpillar": 7812, "armen": 7813, "annah": 7814, "anet": 7815, "anced": 7816, "agic": 7817, "afy": 7818, "ailey": 7819, "Zip": 7820, "Which": 7821, "Sharing": 7822, "Ray": 7823, "Pip": 7824, "Pinky": 7825, "Marie": 7826, "Freddy": 7827, "By": 7828, "Brian": 7829, "Bounce": 7830, "Ġworrying": 7831, "Ġwobble": 7832, "Ġwisely": 7833, "Ġwhoosh": 7834, "Ġwept": 7835, "Ġwaterfall": 7836, "Ġwaded": 7837, "Ġwider": 7838, "Ġuniforms": 7839, "Ġtying": 7840, "Ġtummies": 7841, "Ġtumbled": 7842, "Ġsweaters": 7843, "Ġsweep": 7844, "Ġsuffering": 7845, "Ġstreamers": 7846, "Ġstorekeeper": 7847, "Ġstomp": 7848, "Ġstamped": 7849, "Ġsquaw": 7850, "Ġspringing": 7851, "Ġsniffled": 7852, "Ġslapping": 7853, "Ġshops": 7854, "Ġserv": 7855, "Ġscrews": 7856, "Ġscratching": 7857, "Ġscurry": 7858, "Ġsav": 7859, "Ġrespond": 7860, "Ġrelaxing": 7861, "Ġrectangle": 7862, "Ġrealizing": 7863, "Ġprobably": 7864, "Ġpossess": 7865, "Ġpinching": 7866, "Ġpeeled": 7867, "Ġponies": 7868, "Ġnoticing": 7869, "Ġmotorcycles": 7870, "Ġmonths": 7871, "Ġmomma": 7872, "Ġmoons": 7873, "Ġminding": 7874, "Ġmints": 7875, "Ġmeaning": 7876, "Ġmeals": 7877, "Ġmassages": 7878, "Ġmarker": 7879, "Ġmanners": 7880, "Ġlarger": 7881, "Ġlabels": 7882, "Ġlaces": 7883, "Ġkings": 7884, "Ġjobs": 7885, "Ġinstruments": 7886, "Ġinsisting": 7887, "Ġinj": 7888, "Ġhorizon": 7889, "Ġhandsome": 7890, "Ġgoodbyes": 7891, "Ġglared": 7892, "Ġgiggles": 7893, "Ġgems": 7894, "Ġgasps": 7895, "Ġgest": 7896, "Ġfocus": 7897, "Ġfilms": 7898, "Ġfills": 7899, "Ġexercises": 7900, "Ġencouragement": 7901, "Ġencouraging": 7902, "Ġencount": 7903, "Ġedges": 7904, "Ġdoorway": 7905, "Ġdisplayed": 7906, "Ġdiscussed": 7907, "Ġdestroying": 7908, "Ġdefinitely": 7909, "Ġdeed": 7910, "Ġdances": 7911, "Ġdip": 7912, "Ġdaring": 7913, "Ġcreativity": 7914, "Ġcrackers": 7915, "Ġcowb": 7916, "Ġcorrectly": 7917, "Ġconvin": 7918, "Ġclues": 7919, "Ġclicked": 7920, "Ġcheaper": 7921, "Ġchanges": 7922, "Ġcentre": 7923, "Ġcenter": 7924, "Ġcares": 7925, "Ġcoug": 7926, "Ġbrightest": 7927, "Ġblast": 7928, "Ġbirdseed": 7929, "Ġbelongings": 7930, "Ġbeeped": 7931, "Ġbomb": 7932, "Ġbitten": 7933, "Ġaeroplanes": 7934, "Ġadmiration": 7935, "Ġactivity": 7936, "ĠUniversity": 7937, "ĠTree": 7938, "ĠTiger": 7939, "ĠTidy": 7940, "ĠTake": 7941, "ĠSpoon": 7942, "ĠSpidey": 7943, "ĠRufus": 7944, "ĠRich": 7945, "ĠRain": 7946, "ĠRachel": 7947, "ĠOkay": 7948, "ĠOink": 7949, "ĠNobody": 7950, "ĠNibbles": 7951, "ĠMixy": 7952, "ĠMelissa": 7953, "ĠMeowny": 7954, "ĠMushroom": 7955, "ĠMop": 7956, "ĠMighty": 7957, "ĠMan": 7958, "ĠLouise": 7959, "ĠLeafy": 7960, "ĠJody": 7961, "ĠJump": 7962, "ĠJem": 7963, "ĠGranny": 7964, "ĠFrankie": 7965, "ĠFlora": 7966, "ĠFlame": 7967, "ĠFire": 7968, "ĠFarmer": 7969, "ĠElsa": 7970, "ĠDoll": 7971, "ĠDaniel": 7972, "ĠCroco": 7973, "ĠCrabby": 7974, "ĠCocoa": 7975, "ĠClimb": 7976, "ĠChirp": 7977, "ĠComet": 7978, "ĠBooks": 7979, "ĠBumpy": 7980, "ĠAngela": 7981, "Ġill": 7982, "years": 7983, "yl": 7984, "while": 7985, "ushing": 7986, "urple": 7987, "umphrey": 7988, "ums": 7989, "udrey": 7990, "stalk": 7991, "ssy": 7992, "roken": 7993, "rigued": 7994, "retty": 7995, "rab": 7996, "ounced": 7997, "ophia": 7998, "ongr": 7999, "onse": 8000, "onna": 8001, "omp": 8002, "ntil": 8003, "mbers": 8004, "keepers": 8005, "izziness": 8006, "iter": 8007, "irls": 8008, "inald": 8009, "icip": 8010, "ibby": 8011, "hings": 8012, "guess": 8013, "exi": 8014, "erms": 8015, "erk": 8016, "erious": 8017, "ering": 8018, "ending": 8019, "eeling": 8020, "driver": 8021, "ctar": 8022, "cused": 8023, "boat": 8024, "broken": 8025, "bi": 8026, "bage": 8027, "aya": 8028, "aturday": 8029, "atty": 8030, "asty": 8031, "arty": 8032, "apers": 8033, "apaya": 8034, "antha": 8035, "anwhile": 8036, "acing": 8037, "ais": 8038, "act": 8039, "Want": 8040, "Tilly": 8041, "Slow": 8042, "Rock": 8043, "RR": 8044, "Quick": 8045, "Pr": 8046, "Papa": 8047, "Only": 8048, "Olive": 8049, "Nothing": 8050, "Jolly": 8051, "Instead": 8052, "However": 8053, "Frank": 8054, "Dear": 8055, "Deal": 8056, "Birdy": 8057, "Behind": 8058, "Bop": 8059, "Albert": 8060, "====": 8061, ",'": 8062, "Ġwrinkled": 8063, "Ġwriter": 8064, "Ġwhales": 8065, "Ġwig": 8066, "Ġvisits": 8067, "Ġvisitor": 8068, "Ġvests": 8069, "Ġvehicles": 8070, "Ġtwinkle": 8071, "Ġtravelling": 8072, "Ġtoward": 8073, "Ġtoad": 8074, "Ġthroughout": 8075, "Ġthoughts": 8076, "Ġtapped": 8077, "Ġtuck": 8078, "Ġties": 8079, "Ġstreets": 8080, "Ġstirs": 8081, "Ġsternly": 8082, "Ġstun": 8083, "Ġstings": 8084, "Ġstall": 8085, "Ġstacked": 8086, "Ġsprinkled": 8087, "Ġsnorted": 8088, "Ġsimply": 8089, "Ġshall": 8090, "Ġsets": 8091, "Ġseagulls": 8092, "Ġseals": 8093, "Ġscurrying": 8094, "Ġscrewdriver": 8095, "Ġsadder": 8096, "Ġrunner": 8097, "Ġrods": 8098, "Ġrisks": 8099, "Ġreturning": 8100, "Ġresponse": 8101, "Ġrewards": 8102, "Ġreapp": 8103, "Ġraces": 8104, "Ġrotten": 8105, "Ġpresented": 8106, "Ġpreparing": 8107, "Ġpours": 8108, "Ġpolitely": 8109, "Ġplug": 8110, "Ġpens": 8111, "Ġpennies": 8112, "Ġpays": 8113, "Ġpanicked": 8114, "Ġpuff": 8115, "Ġowners": 8116, "Ġoutfits": 8117, "Ġobserving": 8118, "Ġnectar": 8119, "Ġnur": 8120, "Ġnasty": 8121, "Ġmesmerized": 8122, "Ġmembers": 8123, "Ġmayor": 8124, "Ġmagician": 8125, "Ġmitt": 8126, "Ġhissing": 8127, "Ġhesitant": 8128, "Ġhamm": 8129, "Ġgreeted": 8130, "Ġgrassy": 8131, "Ġglitt": 8132, "Ġgenie": 8133, "Ġgarbage": 8134, "Ġgonna": 8135, "Ġfloats": 8136, "Ġflaps": 8137, "Ġfishermen": 8138, "Ġfarmers": 8139, "Ġfaded": 8140, "Ġdriveway": 8141, "Ġdifferences": 8142, "Ġdemanding": 8143, "Ġdelayed": 8144, "Ġdangers": 8145, "Ġdamaged": 8146, "Ġdizziness": 8147, "Ġcutter": 8148, "Ġcreations": 8149, "Ġcops": 8150, "Ġconsider": 8151, "Ġconcer": 8152, "Ġcommun": 8153, "Ġcommon": 8154, "Ġcleared": 8155, "Ġclassmates": 8156, "Ġclue": 8157, "Ġcharacters": 8158, "Ġcafe": 8159, "Ġburst": 8160, "Ġbudge": 8161, "Ġbubb": 8162, "Ġbravest": 8163, "Ġbraver": 8164, "Ġbol": 8165, "Ġboards": 8166, "Ġblocked": 8167, "Ġbits": 8168, "Ġbeloved": 8169, "Ġbeanstalk": 8170, "Ġbeaver": 8171, "Ġbeast": 8172, "Ġbathed": 8173, "Ġaware": 8174, "Ġaren": 8175, "Ġanticip": 8176, "Ġannoying": 8177, "Ġallowing": 8178, "Ġaffect": 8179, "Ġacts": 8180, "Ġais": 8181, "ĠYog": 8182, "ĠWonder": 8183, "ĠUni": 8184, "ĠUntil": 8185, "ĠToy": 8186, "ĠTato": 8187, "ĠSwing": 8188, "ĠStan": 8189, "ĠSpinny": 8190, "ĠSlinky": 8191, "ĠShampoo": 8192, "ĠSeat": 8193, "ĠSk": 8194, "ĠSaturday": 8195, "ĠReginald": 8196, "ĠRoy": 8197, "ĠRalph": 8198, "ĠPl": 8199, "ĠOuch": 8200, "ĠOld": 8201, "ĠNumber": 8202, "ĠNavy": 8203, "ĠMic": 8204, "ĠLeopard": 8205, "ĠLuc": 8206, "ĠLauren": 8207, "ĠKelly": 8208, "ĠJudge": 8209, "ĠJoan": 8210, "ĠGiant": 8211, "ĠFlexible": 8212, "ĠFlappy": 8213, "ĠFlap": 8214, "ĠEddie": 8215, "ĠCross": 8216, "ĠCici": 8217, "ĠBucky": 8218, "ĠBad": 8219, "ĠApple": 8220, "ĠArm": 8221, "ĠAnt": 8222, "âĢ¦": 8223, "ylv": 8224, "ylvia": 8225, "water": 8226, "veral": 8227, "upin": 8228, "uggy": 8229, "uses": 8230, "sol": 8231, "sn": 8232, "rave": 8233, "rinky": 8234, "quet": 8235, "parent": 8236, "ouquet": 8237, "oochy": 8238, "olo": 8239, "ments": 8240, "lect": 8241, "laire": 8242, "line": 8243, "jack": 8244, "izzie": 8245, "ivia": 8246, "ironment": 8247, "immering": 8248, "illip": 8249, "ift": 8250, "iece": 8251, "ics": 8252, "ib": 8253, "hole": 8254, "giving": 8255, "esses": 8256, "erts": 8257, "elope": 8258, "elie": 8259, "date": 8260, "creams": 8261, "cloud": 8262, "ckless": 8263, "cted": 8264, "cent": 8265, "bird": 8266, "bed": 8267, "athan": 8268, "atitude": 8269, "asha": 8270, "anga": 8271, "acle": 8272, "acher": 8273, "aven": 8274, "Willow": 8275, "Uncle": 8276, "Trust": 8277, "Tw": 8278, "Sof": 8279, "Should": 8280, "Sadie": 8281, "Ralph": 8282, "Promise": 8283, "Mon": 8284, "Leave": 8285, "King": 8286, "Johny": 8287, "Isabella": 8288, "Hmm": 8289, "Goodnight": 8290, "Does": 8291, "Claire": 8292, "Both": 8293, "Binky": 8294, "Beth": 8295, "Ava": 8296, "Adam": 8297, "Ġyelped": 8298, "Ġwiser": 8299, "Ġwadd": 8300, "Ġvibr": 8301, "Ġunable": 8302, "Ġtraveling": 8303, "Ġtrading": 8304, "Ġtheat": 8305, "Ġterrified": 8306, "Ġtemperature": 8307, "Ġteachers": 8308, "Ġtale": 8309, "Ġsymbols": 8310, "Ġsyrup": 8311, "Ġsweetest": 8312, "Ġswallow": 8313, "Ġsupporting": 8314, "Ġsunflowers": 8315, "Ġstores": 8316, "Ġstomachs": 8317, "Ġstatues": 8318, "Ġsquealed": 8319, "Ġsprays": 8320, "Ġsnug": 8321, "Ġsnar": 8322, "Ġslithered": 8323, "Ġslips": 8324, "Ġskate": 8325, "Ġshines": 8326, "Ġshares": 8327, "Ġshorter": 8328, "Ġshh": 8329, "Ġseveral": 8330, "Ġscolds": 8331, "Ġscent": 8332, "Ġsailors": 8333, "Ġsailboat": 8334, "Ġsou": 8335, "Ġrustling": 8336, "Ġroars": 8337, "Ġrivers": 8338, "Ġrealizes": 8339, "Ġreckless": 8340, "Ġreass": 8341, "Ġraking": 8342, "Ġrack": 8343, "Ġquacking": 8344, "Ġpuzzled": 8345, "Ġpostc": 8346, "Ġplugged": 8347, "Ġpills": 8348, "Ġpermitted": 8349, "Ġperformer": 8350, "Ġperformance": 8351, "Ġpedaled": 8352, "Ġpacket": 8353, "Ġpouch": 8354, "Ġpant": 8355, "Ġopinions": 8356, "Ġoffering": 8357, "Ġnewspapers": 8358, "Ġnervously": 8359, "Ġmushy": 8360, "Ġmunching": 8361, "Ġmeowing": 8362, "Ġmaterials": 8363, "Ġmailing": 8364, "Ġmagazines": 8365, "Ġlungs": 8366, "Ġlunchtime": 8367, "Ġlongest": 8368, "Ġlun": 8369, "Ġjing": 8370, "Ġinvites": 8371, "Ġintrigued": 8372, "Ġhotter": 8373, "Ġhisses": 8374, "Ġhesitation": 8375, "Ġguards": 8376, "Ġgrandparent": 8377, "Ġgratitude": 8378, "Ġglows": 8379, "Ġgenerosity": 8380, "Ġgap": 8381, "Ġfunn": 8382, "Ġforgiveness": 8383, "Ġforgives": 8384, "Ġfocused": 8385, "Ġflavors": 8386, "Ġfist": 8387, "Ġexploration": 8388, "Ġexpress": 8389, "Ġexcept": 8390, "Ġenvelopes": 8391, "Ġenvironment": 8392, "Ġencountered": 8393, "Ġearned": 8394, "Ġeld": 8395, "Ġdressing": 8396, "Ġdreamt": 8397, "Ġdollars": 8398, "Ġdisturbing": 8399, "Ġdisagre": 8400, "Ġdigs": 8401, "Ġdesserts": 8402, "Ġdespite": 8403, "Ġdefe": 8404, "Ġcupcakes": 8405, "Ġcuddles": 8406, "Ġcrowd": 8407, "Ġcroaked": 8408, "Ġcorns": 8409, "Ġconvinced": 8410, "Ġcomforting": 8411, "Ġcollap": 8412, "Ġcloudy": 8413, "Ġcloths": 8414, "Ġclosing": 8415, "Ġclerk": 8416, "Ġchoosing": 8417, "Ġchewy": 8418, "Ġcheat": 8419, "Ġcertain": 8420, "Ġbud": 8421, "Ġbirdhouse": 8422, "Ġbeaming": 8423, "Ġbatt": 8424, "Ġbaskets": 8425, "Ġbouquet": 8426, "Ġbound": 8427, "Ġartist": 8428, "Ġappreciation": 8429, "Ġanticipation": 8430, "Ġamused": 8431, "ĠZoey": 8432, "ĠWilliam": 8433, "ĠWhip": 8434, "ĠWait": 8435, "ĠViolet": 8436, "ĠTweety": 8437, "ĠThermometer": 8438, "ĠTick": 8439, "ĠTibby": 8440, "ĠShiny": 8441, "ĠRobot": 8442, "ĠReady": 8443, "ĠRazor": 8444, "ĠQuack": 8445, "ĠPenelope": 8446, "ĠPeep": 8447, "ĠPop": 8448, "ĠPol": 8449, "ĠPlaying": 8450, "ĠPippy": 8451, "ĠOnly": 8452, "ĠOp": 8453, "ĠOh": 8454, "ĠNate": 8455, "ĠMarsh": 8456, "ĠMoppy": 8457, "ĠMina": 8458, "ĠMilo": 8459, "ĠLaura": 8460, "ĠLexi": 8461, "ĠLand": 8462, "ĠJune": 8463, "ĠHatty": 8464, "ĠFun": 8465, "ĠFix": 8466, "ĠEverybody": 8467, "ĠDust": 8468, "ĠDespite": 8469, "ĠChug": 8470, "ĠChuck": 8471, "ĠChip": 8472, "ĠCle": 8473, "ĠCaterpillar": 8474, "ĠBrush": 8475, "ĠBobba": 8476, "ĠBrave": 8477, "ĠAuntie": 8478, "ĠAmanda": 8479, "ĠAudrey": 8480, "ĠAly": 8481, "ĠAbi": 8482, "Ġ''": 8483, "Ġ5": 8484, "yan": 8485, "weed": 8486, "ullaby": 8487, "ula": 8488, "ugging": 8489, "uise": 8490, "stick": 8491, "ssa": 8492, "snap": 8493, "sers": 8494, "rya": 8495, "riendship": 8496, "pop": 8497, "ots": 8498, "otato": 8499, "ortunately": 8500, "ordan": 8501, "ookie": 8502, "ongrat": 8503, "ongratul": 8504, "onst": 8505, "oint": 8506, "oever": 8507, "occo": 8508, "off": 8509, "ming": 8510, "mate": 8511, "lor": 8512, "ita": 8513, "ircle": 8514, "ipes": 8515, "inted": 8516, "ildren": 8517, "ige": 8518, "ienced": 8519, "idence": 8520, "iden": 8521, "icent": 8522, "ivery": 8523, "fficer": 8524, "fl": 8525, "fire": 8526, "ets": 8527, "eresa": 8528, "emies": 8529, "elina": 8530, "earl": 8531, "cri": 8532, "bbers": 8533, "bell": 8534, "bank": 8535, "azy": 8536, "att": 8537, "assport": 8538, "asers": 8539, "armony": 8540, "arlings": 8541, "angles": 8542, "ampered": 8543, "amedics": 8544, "aisies": 8545, "agnet": 8546, "abelle": 8547, "Zoe": 8548, "Wake": 8549, "Suzie": 8550, "Someone": 8551, "Sofia": 8552, "Snow": 8553, "Sun": 8554, "Squeaky": 8555, "Splash": 8556, "Speedy": 8557, "Robert": 8558, "Robby": 8559, "Mother": 8560, "Mel": 8561, "Kiki": 8562, "Kids": 8563, "Karen": 8564, "Jess": 8565, "Jacob": 8566, "Ice": 8567, "Hoppy": 8568, "Ho": 8569, "Got": 8570, "Gogo": 8571, "Gigi": 8572, "Froggy": 8573, "Finny": 8574, "Eat": 8575, "Danger": 8576, "Carl": 8577, "Anne": 8578, "Abigail": 8579, "ĠâĢĶ": 8580, "Ġwinks": 8581, "Ġwhispering": 8582, "Ġwhimpered": 8583, "Ġwhiskers": 8584, "Ġwhir": 8585, "Ġwhine": 8586, "Ġwelcoming": 8587, "Ġwashes": 8588, "Ġwarmly": 8589, "Ġvibrant": 8590, "Ġunwrap": 8591, "Ġunderstands": 8592, "Ġundone": 8593, "Ġtype": 8594, "Ġtunes": 8595, "Ġtriangles": 8596, "Ġtravels": 8597, "Ġtowns": 8598, "Ġtoolbox": 8599, "Ġtidied": 8600, "Ġthundercloud": 8601, "Ġtheatre": 8602, "Ġtentacles": 8603, "Ġteams": 8604, "Ġswimsuits": 8605, "Ġsuns": 8606, "Ġsuits": 8607, "Ġsuitcase": 8608, "Ġstyles": 8609, "Ġstrum": 8610, "Ġstorms": 8611, "Ġsteering": 8612, "Ġspoiling": 8613, "Ġspy": 8614, "Ġsoot": 8615, "Ġsnowfl": 8616, "Ġsmoother": 8617, "Ġsmartest": 8618, "Ġsleds": 8619, "Ġsituations": 8620, "Ġsirens": 8621, "Ġshrank": 8622, "Ġshinier": 8623, "Ġseconds": 8624, "Ġseaweed": 8625, "Ġscraped": 8626, "Ġscampered": 8627, "Ġsalon": 8628, "Ġrobe": 8629, "Ġrobbers": 8630, "Ġriverbank": 8631, "Ġriches": 8632, "Ġresisted": 8633, "Ġrepairs": 8634, "Ġrefreshing": 8635, "Ġrealise": 8636, "Ġreun": 8637, "Ġrely": 8638, "Ġrushing": 8639, "Ġquarreled": 8640, "Ġpupils": 8641, "Ġproviding": 8642, "Ġpressing": 8643, "Ġpractised": 8644, "Ġprove": 8645, "Ġprank": 8646, "Ġplaydate": 8647, "Ġplans": 8648, "Ġpecks": 8649, "Ġpassen": 8650, "Ġparamedics": 8651, "Ġpuck": 8652, "Ġpound": 8653, "Ġowls": 8654, "Ġobeyed": 8655, "Ġodd": 8656, "Ġnibbled": 8657, "Ġniece": 8658, "Ġmugs": 8659, "Ġmixture": 8660, "Ġmessed": 8661, "Ġmedals": 8662, "Ġmer": 8663, "Ġlumberjack": 8664, "Ġluckily": 8665, "Ġlocks": 8666, "Ġlectures": 8667, "Ġlullaby": 8668, "Ġjoyfully": 8669, "Ġjets": 8670, "Ġinjured": 8671, "Ġhunters": 8672, "Ġhiss": 8673, "Ġhippos": 8674, "Ġheron": 8675, "Ġhelicopters": 8676, "Ġheartbroken": 8677, "Ġheaven": 8678, "Ġhatch": 8679, "Ġhabit": 8680, "Ġguarding": 8681, "Ġguided": 8682, "Ġguesses": 8683, "Ġgrumbled": 8684, "Ġglanced": 8685, "Ġgesture": 8686, "Ġglee": 8687, "Ġfoggy": 8688, "Ġflips": 8689, "Ġfixer": 8690, "Ġfires": 8691, "Ġfinishing": 8692, "Ġfinal": 8693, "Ġfacts": 8694, "Ġfaith": 8695, "Ġfailed": 8696, "Ġfulf": 8697, "Ġexplains": 8698, "Ġexplo": 8699, "Ġexperienced": 8700, "Ġexpecting": 8701, "Ġenemies": 8702, "Ġechoed": 8703, "Ġdoorbell": 8704, "Ġdisobeyed": 8705, "Ġdisagreement": 8706, "Ġdigger": 8707, "Ġdifferently": 8708, "Ġdesigning": 8709, "Ġdemonst": 8710, "Ġdelaying": 8711, "Ġdelivery": 8712, "Ġdaddies": 8713, "Ġding": 8714, "Ġdarlings": 8715, "Ġdaisies": 8716, "Ġcrowns": 8717, "Ġcrocodiles": 8718, "Ġcrickets": 8719, "Ġcreamy": 8720, "Ġcrashing": 8721, "Ġcovering": 8722, "Ġcousins": 8723, "Ġcottage": 8724, "Ġconduct": 8725, "Ġconcerned": 8726, "Ġcompete": 8727, "Ġcoloring": 8728, "Ġclut": 8729, "Ġchews": 8730, "Ġcells": 8731, "Ġcarve": 8732, "Ġcables": 8733, "Ġcausing": 8734, "Ġbulbs": 8735, "Ġbolt": 8736, "Ġblooms": 8737, "Ġblur": 8738, "Ġblades": 8739, "Ġblade": 8740, "Ġbendy": 8741, "Ġbends": 8742, "Ġbless": 8743, "Ġattend": 8744, "Ġarr": 8745, "Ġanswering": 8746, "Ġannounced": 8747, "Ġangrily": 8748, "Ġangrier": 8749, "Ġalley": 8750, "Ġalthough": 8751, "Ġaisle": 8752, "Ġachieved": 8753, "Ġability": 8754, "ĠWhoever": 8755, "ĠWise": 8756, "ĠWell": 8757, "ĠWar": 8758, "ĠVolly": 8759, "ĠTrucky": 8760, "ĠTodd": 8761, "ĠTy": 8762, "ĠTock": 8763, "ĠTizzy": 8764, "ĠTeresa": 8765, "ĠSunshine": 8766, "ĠStealing": 8767, "ĠSquare": 8768, "ĠSpicy": 8769, "ĠSpace": 8770, "ĠSnowball": 8771, "ĠSkip": 8772, "ĠSummer": 8773, "ĠSince": 8774, "ĠRude": 8775, "ĠRoll": 8776, "ĠRyan": 8777, "ĠRita": 8778, "ĠRicky": 8779, "ĠRh": 8780, "ĠPrint": 8781, "ĠPhillip": 8782, "ĠPurple": 8783, "ĠPoint": 8784, "ĠPet": 8785, "ĠPassport": 8786, "ĠParty": 8787, "ĠPapaya": 8788, "ĠOxygen": 8789, "ĠOfficer": 8790, "ĠMixie": 8791, "ĠMelon": 8792, "ĠMaya": 8793, "ĠMuggy": 8794, "ĠMs": 8795, "ĠMore": 8796, "ĠMake": 8797, "ĠMaddie": 8798, "ĠLaurie": 8799, "ĠLots": 8800, "ĠLazy": 8801, "ĠKanga": 8802, "ĠJaney": 8803, "ĠJumpy": 8804, "ĠIce": 8805, "ĠHello": 8806, "ĠGrand": 8807, "ĠFlick": 8808, "ĠFriendship": 8809, "ĠFind": 8810, "ĠFair": 8811, "ĠDull": 8812, "ĠDot": 8813, "ĠDezi": 8814, "ĠClouds": 8815, "ĠCara": 8816, "ĠCable": 8817, "ĠBussy": 8818, "ĠBooker": 8819, "ĠBobbie": 8820, "ĠBirds": 8821, "ĠBibo": 8822, "ĠBenji": 8823, "ĠBeepy": 8824, "ĠBand": 8825, "ĠAlbert": 8826, "ĠArya": 8827, "ĠAc": 8828, "âĢĿ,": 8829, "wen": 8830, "vered": 8831, "venir": 8832, "undred": 8833, "unched": 8834, "ugar": 8835, "ubber": 8836, "uild": 8837, "uard": 8838, "uardo": 8839, "tha": 8840, "sel": 8841, "she": 8842, "sack": 8843, "roccoli": 8844, "rnie": 8845, "rints": 8846, "rest": 8847, "repe": 8848, "repeat": 8849, "rees": 8850, "rough": 8851, "rons": 8852, "rings": 8853, "rina": 8854, "ration": 8855, "quar": 8856, "quarium": 8857, "peed": 8858, "prints": 8859, "per": 8860, "ouraged": 8861, "orence": 8862, "opy": 8863, "ooks": 8864, "onnie": 8865, "okay": 8866, "ndles": 8867, "nor": 8868, "ne": 8869, "mel": 8870, "melon": 8871, "mar": 8872, "jamin": 8873, "ives": 8874, "ippers": 8875, "incy": 8876, "imals": 8877, "iggled": 8878, "igger": 8879, "ienna": 8880, "ieves": 8881, "icola": 8882, "icious": 8883, "icate": 8884, "ibil": 8885, "guard": 8886, "exit": 8887, "etchup": 8888, "essy": 8889, "ellyfish": 8890, "elieve": 8891, "elix": 8892, "eading": 8893, "even": 8894, "ese": 8895, "doo": 8896, "dog": 8897, "dmother": 8898, "dinky": 8899, "dges": 8900, "dad": 8901, "ctopuses": 8902, "couraged": 8903, "can": 8904, "cake": 8905, "balls": 8906, "aty": 8907, "ashing": 8908, "artha": 8909, "artled": 8910, "ansform": 8911, "andel": 8912, "amps": 8913, "ali": 8914, "ager": 8915, "acy": 8916, "accoon": 8917, "abrina": 8918, "aige": 8919, "Wiggly": 8920, "Two": 8921, "Theo": 8922, "Ted": 8923, "Tara": 8924, "Still": 8925, "Snap": 8926, "Shrinky": 8927, "Share": 8928, "Sadly": 8929, "Surrender": 8930, "Rabbit": 8931, "Polly": 8932, "Outside": 8933, "Open": 8934, "Nice": 8935, "Near": 8936, "Meanwhile": 8937, "Maria": 8938, "Martha": 8939, "Maddie": 8940, "Kelly": 8941, "Jackie": 8942, "Joy": 8943, "Jay": 8944, "Isn": 8945, "Hope": 8946, "Friends": 8947, "Fish": 8948, "En": 8949, "Duck": 8950, "Chloe": 8951, "Curious": 8952, "Caw": 8953, "Catch": 8954, "Bug": 8955, "Bo": 8956, "Belle": 8957, "Arthur": 8958, "Any": 8959, "',": 8960, "Ġzookeepers": 8961, "Ġwrapper": 8962, "Ġwildf": 8963, "Ġweighs": 8964, "Ġwebs": 8965, "Ġweaker": 8966, "Ġwatermelon": 8967, "Ġwarri": 8968, "Ġwaistband": 8969, "Ġuntw": 8970, "Ġuntangle": 8971, "Ġtreated": 8972, "Ġtreas": 8973, "Ġtransform": 8974, "Ġtoucan": 8975, "Ġtingling": 8976, "Ġthanking": 8977, "Ġthieves": 8978, "Ġtesting": 8979, "Ġtempted": 8980, "Ġswitches": 8981, "Ġswaying": 8982, "Ġstrolled": 8983, "Ġstretches": 8984, "Ġstomped": 8985, "Ġstepping": 8986, "Ġstains": 8987, "Ġsquawked": 8988, "Ġspilling": 8989, "Ġspies": 8990, "Ġsped": 8991, "Ġsouvenir": 8992, "Ġsnowflakes": 8993, "Ġsnarled": 8994, "Ġsnapping": 8995, "Ġslug": 8996, "Ġskateboard": 8997, "Ġsilent": 8998, "Ġshooed": 8999, "Ġseeking": 9000, "Ġscenery": 9001, "Ġscre": 9002, "Ġsavanna": 9003, "Ġreunited": 9004, "Ġrecipe": 9005, "Ġruff": 9006, "Ġrout": 9007, "Ġrises": 9008, "Ġrider": 9009, "Ġquilt": 9010, "Ġprotects": 9011, "Ġposts": 9012, "Ġpoppies": 9013, "Ġplumber": 9014, "Ġpeels": 9015, "Ġpeeks": 9016, "Ġpearls": 9017, "Ġparticularly": 9018, "Ġpoop": 9019, "Ġpasses": 9020, "Ġotherwise": 9021, "Ġostriches": 9022, "Ġopt": 9023, "Ġonline": 9024, "Ġoccasions": 9025, "Ġoccasion": 9026, "Ġobst": 9027, "Ġnovels": 9028, "Ġnightfall": 9029, "Ġneighbours": 9030, "Ġminds": 9031, "Ġmesmerised": 9032, "Ġmelts": 9033, "Ġmeatballs": 9034, "Ġmattresses": 9035, "Ġmur": 9036, "Ġmoo": 9037, "Ġmate": 9038, "Ġlifeguard": 9039, "Ġlessons": 9040, "Ġlearner": 9041, "Ġlevel": 9042, "Ġlamps": 9043, "Ġlaz": 9044, "Ġlur": 9045, "Ġlimp": 9046, "Ġketchup": 9047, "Ġintroducing": 9048, "Ġintelligence": 9049, "Ġintently": 9050, "Ġinstrument": 9051, "Ġhumming": 9052, "Ġhost": 9053, "Ġheights": 9054, "Ġhearing": 9055, "Ġhanding": 9056, "Ġhamster": 9057, "Ġhaw": 9058, "Ġhuff": 9059, "Ġhoof": 9060, "Ġgodmother": 9061, "Ġgiants": 9062, "Ġgears": 9063, "Ġgerms": 9064, "Ġfreezing": 9065, "Ġfreedom": 9066, "Ġforests": 9067, "Ġforts": 9068, "Ġfootprints": 9069, "Ġfluttering": 9070, "Ġfirefighter": 9071, "Ġfences": 9072, "Ġfet": 9073, "Ġexperiences": 9074, "Ġexamining": 9075, "Ġexch": 9076, "Ġerasers": 9077, "Ġentering": 9078, "Ġenjoyable": 9079, "Ġendings": 9080, "Ġemerged": 9081, "Ġembra": 9082, "Ġearrings": 9083, "Ġdumped": 9084, "Ġdrip": 9085, "Ġdrift": 9086, "Ġdodging": 9087, "Ġdodged": 9088, "Ġdives": 9089, "Ġdisguise": 9090, "Ġdisappears": 9091, "Ġdemonstrated": 9092, "Ġdips": 9093, "Ġdet": 9094, "Ġdep": 9095, "Ġdashed": 9096, "Ġdandel": 9097, "Ġcruel": 9098, "Ġcoughed": 9099, "Ġcopied": 9100, "Ġcontainer": 9101, "Ġconfidence": 9102, "Ġconductor": 9103, "Ġconcent": 9104, "Ġcomputers": 9105, "Ġcombing": 9106, "Ġclover": 9107, "Ġclip": 9108, "Ġcherish": 9109, "Ġchecking": 9110, "Ġcharge": 9111, "Ġchatter": 9112, "Ġcalmly": 9113, "Ġcongratul": 9114, "Ġburying": 9115, "Ġboil": 9116, "Ġbluebird": 9117, "Ġbills": 9118, "Ġbeautif": 9119, "Ġbattle": 9120, "Ġbuddy": 9121, "Ġborn": 9122, "Ġawful": 9123, "Ġattem": 9124, "Ġattack": 9125, "Ġastronauts": 9126, "Ġapproach": 9127, "Ġapplauding": 9128, "Ġaprons": 9129, "Ġairplanes": 9130, "Ġages": 9131, "Ġafford": 9132, "Ġafar": 9133, "Ġaddress": 9134, "Ġaccomplished": 9135, "Ġaquarium": 9136, "ĠYogi": 9137, "ĠWooly": 9138, "ĠWolf": 9139, "ĠTeacher": 9140, "ĠTra": 9141, "ĠTip": 9142, "ĠSwitch": 9143, "ĠSundays": 9144, "ĠStill": 9145, "ĠSpiky": 9146, "ĠSlide": 9147, "ĠSamantha": 9148, "ĠSophia": 9149, "ĠSly": 9150, "ĠRosa": 9151, "ĠRainbow": 9152, "ĠRae": 9153, "ĠRubber": 9154, "ĠRolly": 9155, "ĠRick": 9156, "ĠQueeny": 9157, "ĠPupil": 9158, "ĠPuss": 9159, "ĠPrinty": 9160, "ĠPotato": 9161, "ĠPoochy": 9162, "ĠOrin": 9163, "ĠOx": 9164, "ĠNurse": 9165, "ĠMonkey": 9166, "ĠMartha": 9167, "ĠMagnet": 9168, "ĠLupin": 9169, "ĠLumber": 9170, "ĠLime": 9171, "ĠLife": 9172, "ĠKevin": 9173, "ĠJohnson": 9174, "ĠJemma": 9175, "ĠJellyfish": 9176, "ĠJed": 9177, "ĠHerbie": 9178, "ĠHerb": 9179, "ĠHumphrey": 9180, "ĠHank": 9181, "ĠGrumpy": 9182, "ĠGinny": 9183, "ĠGill": 9184, "ĠFredrick": 9185, "ĠFlorence": 9186, "ĠFelix": 9187, "ĠEduardo": 9188, "ĠDogs": 9189, "ĠDeal": 9190, "ĠClimbing": 9191, "ĠChris": 9192, "ĠChair": 9193, "ĠCarlos": 9194, "ĠCars": 9195, "ĠCory": 9196, "ĠCookie": 9197, "ĠClive": 9198, "ĠCelia": 9199, "ĠCarmen": 9200, "ĠBury": 9201, "ĠBundles": 9202, "ĠBreezy": 9203, "ĠBeeBee": 9204, "ĠBecky": 9205, "ĠBarky": 9206, "ĠBallie": 9207, "ĠBroccoli": 9208, "ĠBones": 9209, "ĠBessy": 9210, "ĠBang": 9211, "ĠAnnabelle": 9212, "ĠAlyssa": 9213, "Ġicky": 9214, "wee": 9215, "vas": 9216, "utely": 9217, "ussel": 9218, "usp": 9219, "uspicious": 9220, "usic": 9221, "upine": 9222, "uss": 9223, "tail": 9224, "stered": 9225, "storm": 9226, "solutely": 9227, "shop": 9228, "sey": 9229, "rett": 9230, "rent": 9231, "rances": 9232, "quee": 9233, "queeze": 9234, "peck": 9235, "pecker": 9236, "ousy": 9237, "ouple": 9238, "oula": 9239, "ouched": 9240, "oscope": 9241, "orth": 9242, "oray": 9243, "oebe": 9244, "oving": 9245, "of": 9246, "oard": 9247, "nif": 9248, "meow": 9249, "moo": 9250, "miest": 9251, "lescope": 9252, "lectric": 9253, "long": 9254, "lo": 9255, "lared": 9256, "lap": 9257, "kie": 9258, "ka": 9259, "just": 9260, "itive": 9261, "iran": 9262, "inct": 9263, "immi": 9264, "iment": 9265, "ilted": 9266, "ighting": 9267, "idier": 9268, "ico": 9269, "icated": 9270, "gets": 9271, "getic": 9272, "faction": 9273, "everse": 9274, "ethoscope": 9275, "etah": 9276, "erf": 9277, "enee": 9278, "ecc": 9279, "ecca": 9280, "ein": 9281, "cidents": 9282, "chard": 9283, "cupine": 9284, "cled": 9285, "cat": 9286, "boards": 9287, "beh": 9288, "bum": 9289, "build": 9290, "asketball": 9291, "asant": 9292, "arrin": 9293, "arley": 9294, "apons": 9295, "apes": 9296, "antr": 9297, "antelle": 9298, "antastic": 9299, "andas": 9300, "anion": 9301, "ampi": 9302, "amboo": 9303, "allows": 9304, "alf": 9305, "aint": 9306, "ails": 9307, "Zigzag": 9308, "Without": 9309, "William": 9310, "Wednesday": 9311, "Toot": 9312, "Tree": 9313, "Toto": 9314, "Tony": 9315, "Tam": 9316, "Stand": 9317, "Snowy": 9318, "Slowly": 9319, "Rover": 9320, "Ruff": 9321, "Pam": 9322, "Nora": 9323, "Nina": 9324, "Never": 9325, "Nate": 9326, "Megan": 9327, "Mouse": 9328, "Mint": 9329, "Milo": 9330, "Magic": 9331, "Luke": 9332, "Jonny": 9333, "June": 9334, "Janie": 9335, "Hippy": 9336, "Honey": 9337, "Grab": 9338, "Foxy": 9339, "Freeze": 9340, "Fortunately": 9341, "Fl": 9342, "Davey": 9343, "Down": 9344, "Ding": 9345, "Cheap": 9346, "Crab": 9347, "Candy": 9348, "Brown": 9349, "Brad": 9350, "Brrr": 9351, "Bless": 9352, "Back": 9353, "Baa": 9354, "Amanda": 9355, "Along": 9356, "Ahoy": 9357, "Aw": 9358, "Arrr": 9359, "Ġzipping": 9360, "Ġyummiest": 9361, "Ġworkshop": 9362, "Ġwoodpecker": 9363, "Ġwolves": 9364, "Ġwoken": 9365, "Ġwindowsill": 9366, "Ġwinds": 9367, "Ġwildflowers": 9368, "Ġwhoever": 9369, "Ġwaddled": 9370, "Ġwiggly": 9371, "Ġwicked": 9372, "Ġvalleys": 9373, "Ġurging": 9374, "Ġupside": 9375, "Ġunwrapped": 9376, "Ġunderwater": 9377, "Ġtwenty": 9378, "Ġtreasured": 9379, "Ġtransformed": 9380, "Ġtrigger": 9381, "Ġtours": 9382, "Ġtossing": 9383, "Ġtimid": 9384, "Ġtests": 9385, "Ġtents": 9386, "Ġtelescope": 9387, "Ġtaps": 9388, "Ġtumbling": 9389, "Ġter": 9390, "Ġtend": 9391, "Ġtantr": 9392, "Ġsweeter": 9393, "Ġswans": 9394, "Ġsurrendered": 9395, "Ġsuccessfully": 9396, "Ġstunning": 9397, "Ġstrokes": 9398, "Ġstretchy": 9399, "Ġstored": 9400, "Ġstaffs": 9401, "Ġstacking": 9402, "Ġstethoscope": 9403, "Ġsqueezes": 9404, "Ġsquished": 9405, "Ġspaces": 9406, "Ġsnowing": 9407, "Ġsneezes": 9408, "Ġsneaks": 9409, "Ġsnipped": 9410, "Ġsnip": 9411, "Ġsleeps": 9412, "Ġslaps": 9413, "Ġsincere": 9414, "Ġshrugs": 9415, "Ġshrunk": 9416, "Ġshoots": 9417, "Ġshoo": 9418, "Ġshatter": 9419, "Ġsettling": 9420, "Ġservant": 9421, "Ġsandcastles": 9422, "Ġsacks": 9423, "Ġrowing": 9424, "Ġroofs": 9425, "Ġrestoring": 9426, "Ġresponded": 9427, "Ġrescuing": 9428, "Ġreappeared": 9429, "Ġreality": 9430, "Ġrebuild": 9431, "Ġrags": 9432, "Ġraising": 9433, "Ġprotection": 9434, "Ġproved": 9435, "Ġprod": 9436, "Ġprocess": 9437, "Ġpostman": 9438, "Ġpossession": 9439, "Ġporcupine": 9440, "Ġponytail": 9441, "Ġpose": 9442, "Ġplank": 9443, "Ġpilots": 9444, "Ġpersistence": 9445, "Ġpedaling": 9446, "Ġpeep": 9447, "Ġpastor": 9448, "Ġpipes": 9449, "Ġpandas": 9450, "Ġowns": 9451, "Ġoutfit": 9452, "Ġoutcome": 9453, "Ġorders": 9454, "Ġorchard": 9455, "Ġoctopuses": 9456, "Ġnightmares": 9457, "Ġnights": 9458, "Ġnibble": 9459, "Ġnecks": 9460, "Ġmurky": 9461, "Ġmustered": 9462, "Ġmindful": 9463, "Ġmessages": 9464, "Ġmerma": 9465, "Ġmaterial": 9466, "Ġmatey": 9467, "Ġmats": 9468, "Ġmarve": 9469, "Ġmailboxes": 9470, "Ġmagnif": 9471, "Ġlurking": 9472, "Ġleans": 9473, "Ġleaking": 9474, "Ġlayer": 9475, "Ġlawyers": 9476, "Ġlaws": 9477, "Ġlace": 9478, "Ġlush": 9479, "Ġkneeling": 9480, "Ġkissing": 9481, "Ġkeyhole": 9482, "Ġkayaks": 9483, "Ġkilled": 9484, "Ġjacks": 9485, "Ġjugg": 9486, "Ġitches": 9487, "Ġinform": 9488, "Ġinter": 9489, "Ġhorri": 9490, "Ġhooks": 9491, "Ġhonking": 9492, "Ġholidays": 9493, "Ġhoe": 9494, "Ġheadache": 9495, "Ġhey": 9496, "Ġhawk": 9497, "Ġhardest": 9498, "Ġhangers": 9499, "Ġhaircutter": 9500, "Ġhundred": 9501, "Ġhood": 9502, "Ġguilt": 9503, "Ġgrandparents": 9504, "Ġgoodness": 9505, "Ġgooey": 9506, "Ġglittering": 9507, "Ġglittered": 9508, "Ġfrustration": 9509, "Ġflashes": 9510, "Ġflashed": 9511, "Ġfetched": 9512, "Ġfacing": 9513, "Ġfuzzy": 9514, "Ġfired": 9515, "Ġfif": 9516, "Ġferry": 9517, "Ġfantastic": 9518, "Ġfade": 9519, "Ġexperiment": 9520, "Ġexpert": 9521, "Ġexams": 9522, "Ġengines": 9523, "Ġenergetic": 9524, "Ġelbows": 9525, "Ġdrill": 9526, "Ġdrawers": 9527, "Ġdrown": 9528, "Ġdiscussing": 9529, "Ġdiscoveries": 9530, "Ġdisappoint": 9531, "Ġdisagreeing": 9532, "Ġdiscouraged": 9533, "Ġdiamonds": 9534, "Ġdiv": 9535, "Ġdescri": 9536, "Ġdeclared": 9537, "Ġdandelion": 9538, "Ġcustomers": 9539, "Ġcurrent": 9540, "Ġcubs": 9541, "Ġcreep": 9542, "Ġcrushed": 9543, "Ġcowboys": 9544, "Ġcotton": 9545, "Ġcooed": 9546, "Ġcontinuing": 9547, "Ġconvers": 9548, "Ġconqu": 9549, "Ġcompanion": 9550, "Ġcommunicate": 9551, "Ġcollapsed": 9552, "Ġclam": 9553, "Ġchocolates": 9554, "Ġchopping": 9555, "Ġcheetah": 9556, "Ġcheated": 9557, "Ġchatted": 9558, "Ġchains": 9559, "Ġchin": 9560, "Ġchilly": 9561, "Ġchill": 9562, "Ġcarries": 9563, "Ġcanvas": 9564, "Ġcouple": 9565, "Ġbushy": 9566, "Ġburrow": 9567, "Ġbumping": 9568, "Ġbubbly": 9569, "Ġbrakes": 9570, "Ġbounded": 9571, "Ġbooth": 9572, "Ġblushed": 9573, "Ġblob": 9574, "Ġbirdie": 9575, "Ġbeeps": 9576, "Ġbeautifully": 9577, "Ġbeaks": 9578, "Ġbeating": 9579, "Ġbanging": 9580, "Ġbamboo": 9581, "Ġaston": 9582, "Ġalbum": 9583, "Ġagreeing": 9584, "Ġadventurer": 9585, "Ġaccidents": 9586, "Ġabilities": 9587, "Ġaboard": 9588, "ĠZog": 9589, "ĠZane": 9590, "ĠWhistler": 9591, "ĠWin": 9592, "ĠVroom": 9593, "ĠUsing": 9594, "ĠUse": 9595, "ĠTrucko": 9596, "ĠTomorrow": 9597, "ĠThanksgiving": 9598, "ĠThink": 9599, "ĠTeach": 9600, "ĠTuck": 9601, "ĠThings": 9602, "ĠStacy": 9603, "ĠSpidy": 9604, "ĠSharp": 9605, "ĠShare": 9606, "ĠSean": 9607, "ĠSuper": 9608, "ĠSugar": 9609, "ĠSpeed": 9610, "ĠSoup": 9611, "ĠSister": 9612, "ĠSienna": 9613, "ĠRhythm": 9614, "ĠRussel": 9615, "ĠRory": 9616, "ĠRopy": 9617, "ĠRolo": 9618, "ĠRocco": 9619, "ĠRico": 9620, "ĠRavi": 9621, "ĠRaccoon": 9622, "ĠQuacky": 9623, "ĠPolite": 9624, "ĠPokie": 9625, "ĠPaula": 9626, "ĠPick": 9627, "ĠPerri": 9628, "ĠPearl": 9629, "ĠPast": 9630, "ĠOnion": 9631, "ĠOlivia": 9632, "ĠOt": 9633, "ĠOat": 9634, "ĠNora": 9635, "ĠNight": 9636, "ĠNever": 9637, "ĠModest": 9638, "ĠMillicent": 9639, "ĠMicroscope": 9640, "ĠMelinda": 9641, "ĠMarsha": 9642, "ĠMousy": 9643, "ĠMine": 9644, "ĠMick": 9645, "ĠMabel": 9646, "ĠLuca": 9647, "ĠLea": 9648, "ĠLizzie": 9649, "ĠLinda": 9650, "ĠLift": 9651, "ĠKeith": 9652, "ĠKin": 9653, "ĠKaty": 9654, "ĠKaren": 9655, "ĠJonny": 9656, "ĠJonathan": 9657, "ĠJodie": 9658, "ĠJoanna": 9659, "ĠJordan": 9660, "ĠJason": 9661, "ĠIm": 9662, "ĠIcy": 9663, "ĠHelping": 9664, "ĠHula": 9665, "ĠHannah": 9666, "ĠHana": 9667, "ĠHailey": 9668, "ĠGramps": 9669, "ĠGwen": 9670, "ĠGl": 9671, "ĠFleur": 9672, "ĠFlutter": 9673, "ĠFlip": 9674, "ĠFlash": 9675, "ĠFurry": 9676, "ĠFold": 9677, "ĠFighting": 9678, "ĠFanny": 9679, "ĠEva": 9680, "ĠDoes": 9681, "ĠDream": 9682, "ĠDee": 9683, "ĠCowy": 9684, "ĠClumsy": 9685, "ĠClose": 9686, "ĠClaws": 9687, "ĠChewy": 9688, "ĠChef": 9689, "ĠCheese": 9690, "ĠChantelle": 9691, "ĠCurious": 9692, "ĠCon": 9693, "ĠComp": 9694, "ĠCate": 9695, "ĠBlake": 9696, "ĠBonnie": 9697, "ĠBolly": 9698, "ĠBed": 9699, "ĠBasketball": 9700, "ĠAnnabel": 9701, "ĠAmie": 9702, "ĠAfterwards": 9703, "ĠAccidents": 9704, "ĠAman": 9705, "ĠAlf": 9706, "whoosh": 9707, "working": 9708, "whee": 9709, "welcome": 9710, "vive": 9711, "vince": 9712, "usan": 9713, "urora": 9714, "unted": 9715, "university": 9716, "umm": 9717, "umed": 9718, "ulped": 9719, "udged": 9720, "ucksack": 9721, "under": 9722, "stupid": 9723, "stantly": 9724, "ssil": 9725, "shrink": 9726, "shm": 9727, "shmallows": 9728, "shaped": 9729, "shadow": 9730, "sery": 9731, "ringe": 9732, "ressed": 9733, "res": 9734, "rit": 9735, "pting": 9736, "parable": 9737, "pr": 9738, "pow": 9739, "pher": 9740, "pan": 9741, "otion": 9742, "osure": 9743, "ordinary": 9744, "open": 9745, "oped": 9746, "ooper": 9747, "onde": 9748, "onfused": 9749, "oot": 9750, "oison": 9751, "namon": 9752, "nip": 9753, "nings": 9754, "marine": 9755, "mas": 9756, "lowing": 9757, "lls": 9758, "lling": 9759, "llent": 9760, "llas": 9761, "lest": 9762, "leam": 9763, "leaf": 9764, "lot": 9765, "like": 9766, "lied": 9767, "law": 9768, "laud": 9769, "ks": 9770, "ker": 9771, "jest": 9772, "izzes": 9773, "ively": 9774, "itched": 9775, "itam": 9776, "istening": 9777, "istmas": 9778, "iri": 9779, "inner": 9780, "innamon": 9781, "ima": 9782, "ightning": 9783, "ientist": 9784, "idden": 9785, "icking": 9786, "icers": 9787, "ically": 9788, "iao": 9789, "iens": 9790, "hoo": 9791, "hne": 9792, "gr": 9793, "freeze": 9794, "free": 9795, "flowing": 9796, "eta": 9797, "eral": 9798, "ellie": 9799, "elsey": 9800, "elax": 9801, "eadow": 9802, "eil": 9803, "ece": 9804, "eat": 9805, "ean": 9806, "des": 9807, "daughter": 9808, "cutter": 9809, "colored": 9810, "coat": 9811, "cellent": 9812, "bbling": 9813, "bs": 9814, "bounce": 9815, "boom": 9816, "bling": 9817, "bang": 9818, "azel": 9819, "aylor": 9820, "aura": 9821, "athy": 9822, "atelyn": 9823, "atform": 9824, "atal": 9825, "atalie": 9826, "arted": 9827, "ars": 9828, "applaud": 9829, "aptain": 9830, "aphne": 9831, "angerous": 9832, "ancelot": 9833, "anation": 9834, "ample": 9835, "ambled": 9836, "alerious": 9837, "Yesterday": 9838, "Years": 9839, "Whist": 9840, "Wo": 9841, "Wisdom": 9842, "Whe": 9843, "Wally": 9844, "Violet": 9845, "Trixie": 9846, "Ten": 9847, "Stella": 9848, "Spin": 9849, "Spark": 9850, "Sweet": 9851, "Squ": 9852, "Sc": 9853, "Ros": 9854, "Pippa": 9855, "Pretty": 9856, "Playing": 9857, "Play": 9858, "Pizza": 9859, "Pin": 9860, "Oxygen": 9861, "Move": 9862, "Mittens": 9863, "Mila": 9864, "Michael": 9865, "Many": 9866, "Mabel": 9867, "Lion": 9868, "Lauren": 9869, "Laura": 9870, "Kelsey": 9871, "Kay": 9872, "Jacky": 9873, "Jilly": 9874, "Izzy": 9875, "Hannah": 9876, "Grow": 9877, "Frog": 9878, "Finn": 9879, "Free": 9880, "Feeling": 9881, "Ever": 9882, "Elephant": 9883, "Eddie": 9884, "Daniel": 9885, "Dino": 9886, "Dare": 9887, "Check": 9888, "Catty": 9889, "Confused": 9890, "Celina": 9891, "Brownie": 9892, "Birds": 9893, "Bu": 9894, "Books": 9895, "Ball": 9896, "Auntie": 9897, "Ahh": 9898, "Ant": 9899, "AT": 9900, "?!": 9901, ".âĢĻ": 9902, "!'.": 9903, "!''": 9904, "Ġzips": 9905, "Ġzebras": 9906, "Ġyielding": 9907, "Ġwriggled": 9908, "Ġworst": 9909, "Ġwoodcutter": 9910, "Ġwinking": 9911, "Ġwiggling": 9912, "Ġwhines": 9913, "Ġweapons": 9914, "Ġwarriors": 9915, "Ġwaistbands": 9916, "Ġunlo": 9917, "Ġunicorns": 9918, "Ġunz": 9919, "Ġunless": 9920, "Ġumbrellas": 9921, "Ġtrusts": 9922, "Ġtrumpets": 9923, "Ġtreet": 9924, "Ġtraps": 9925, "Ġtrailer": 9926, "Ġtrot": 9927, "Ġtopp": 9928, "Ġtickles": 9929, "Ġthumbs": 9930, "Ġthump": 9931, "Ġtender": 9932, "Ġtantrum": 9933, "Ġtanks": 9934, "Ġtablet": 9935, "Ġtugging": 9936, "Ġtar": 9937, "Ġsyringe": 9938, "Ġswayed": 9939, "Ġswir": 9940, "Ġsurfed": 9941, "Ġsurvive": 9942, "Ġsupplied": 9943, "Ġsuggests": 9944, "Ġsuggestion": 9945, "Ġsucceeding": 9946, "Ġsubmarine": 9947, "Ġstudies": 9948, "Ġstriking": 9949, "Ġstump": 9950, "Ġstinky": 9951, "Ġsquir": 9952, "Ġsquinted": 9953, "Ġsprinkle": 9954, "Ġsprung": 9955, "Ġspoken": 9956, "Ġspeeds": 9957, "Ġspeaker": 9958, "Ġspeck": 9959, "Ġspied": 9960, "Ġsooner": 9961, "Ġsoftness": 9962, "Ġsoftest": 9963, "Ġsoftened": 9964, "Ġsoapy": 9965, "Ġsniffling": 9966, "Ġsneezy": 9967, "Ġsmash": 9968, "Ġslices": 9969, "Ġsleigh": 9970, "Ġslime": 9971, "Ġsignal": 9972, "Ġsickness": 9973, "Ġshyly": 9974, "Ġservants": 9975, "Ġseriously": 9976, "Ġserving": 9977, "Ġsecretly": 9978, "Ġsection": 9979, "Ġsculptures": 9980, "Ġscrubbing": 9981, "Ġscrunch": 9982, "Ġscrambled": 9983, "Ġscoops": 9984, "Ġscene": 9985, "Ġscares": 9986, "Ġscowl": 9987, "Ġscientist": 9988, "Ġscience": 9989, "Ġsatisfaction": 9990, "Ġsaves": 9991, "Ġsuspicious": 9992, "Ġsly": 9993, "Ġsinking": 9994, "Ġroles": 9995, "Ġroamed": 9996, "Ġribbit": 9997, "Ġrespecting": 9998, "Ġreleasing": 9999}